{
  "version": "1.0",
  "truncation": null,
  "padding": null,
  "added_tokens": [
    {
      "id": 0,
      "content": "<pad>",
      "single_word": false,
      "lstrip": false,
      "rstrip": false,
      "normalized": false,
      "special": true
    },
    {
      "id": 1,
      "content": "<unk>",
      "single_word": false,
      "lstrip": false,
      "rstrip": false,
      "normalized": false,
      "special": true
    },
    {
      "id": 2,
      "content": "<bos>",
      "single_word": false,
      "lstrip": false,
      "rstrip": false,
      "normalized": false,
      "special": true
    },
    {
      "id": 3,
      "content": "<eos>",
      "single_word": false,
      "lstrip": false,
      "rstrip": false,
      "normalized": false,
      "special": true
    },
    {
      "id": 4,
      "content": "<sep>",
      "single_word": false,
      "lstrip": false,
      "rstrip": false,
      "normalized": false,
      "special": true
    },
    {
      "id": 5,
      "content": "<|user|>",
      "single_word": false,
      "lstrip": false,
      "rstrip": false,
      "normalized": false,
      "special": true
    },
    {
      "id": 6,
      "content": "<|assistant|>",
      "single_word": false,
      "lstrip": false,
      "rstrip": false,
      "normalized": false,
      "special": true
    },
    {
      "id": 7,
      "content": "<|system|>",
      "single_word": false,
      "lstrip": false,
      "rstrip": false,
      "normalized": false,
      "special": true
    }
  ],
  "normalizer": {
    "type": "NFC"
  },
  "pre_tokenizer": {
    "type": "Metaspace",
    "replacement": "▁",
    "prepend_scheme": "always",
    "split": true
  },
  "post_processor": {
    "type": "TemplateProcessing",
    "single": [
      {
        "SpecialToken": {
          "id": "<bos>",
          "type_id": 0
        }
      },
      {
        "Sequence": {
          "id": "A",
          "type_id": 0
        }
      },
      {
        "SpecialToken": {
          "id": "<eos>",
          "type_id": 0
        }
      }
    ],
    "pair": [
      {
        "SpecialToken": {
          "id": "<bos>",
          "type_id": 0
        }
      },
      {
        "Sequence": {
          "id": "A",
          "type_id": 0
        }
      },
      {
        "SpecialToken": {
          "id": "<sep>",
          "type_id": 0
        }
      },
      {
        "Sequence": {
          "id": "B",
          "type_id": 1
        }
      },
      {
        "SpecialToken": {
          "id": "<eos>",
          "type_id": 1
        }
      }
    ],
    "special_tokens": {
      "<bos>": {
        "id": "<bos>",
        "ids": [
          2
        ],
        "tokens": [
          "<bos>"
        ]
      },
      "<eos>": {
        "id": "<eos>",
        "ids": [
          3
        ],
        "tokens": [
          "<eos>"
        ]
      },
      "<sep>": {
        "id": "<sep>",
        "ids": [
          4
        ],
        "tokens": [
          "<sep>"
        ]
      }
    }
  },
  "decoder": {
    "type": "Metaspace",
    "replacement": "▁",
    "prepend_scheme": "always",
    "split": true
  },
  "model": {
    "type": "BPE",
    "dropout": null,
    "unk_token": "<unk>",
    "continuing_subword_prefix": null,
    "end_of_word_suffix": null,
    "fuse_unk": false,
    "byte_fallback": false,
    "ignore_merges": false,
    "vocab": {
      "<pad>": 0,
      "<unk>": 1,
      "<bos>": 2,
      "<eos>": 3,
      "<sep>": 4,
      "<|user|>": 5,
      "<|assistant|>": 6,
      "<|system|>": 7,
      "\n": 8,
      "!": 9,
      "(": 10,
      ")": 11,
      ",": 12,
      "-": 13,
      ".": 14,
      "0": 15,
      "1": 16,
      "2": 17,
      "3": 18,
      "4": 19,
      "5": 20,
      "6": 21,
      "7": 22,
      "8": 23,
      "9": 24,
      ":": 25,
      ";": 26,
      "?": 27,
      "A": 28,
      "B": 29,
      "C": 30,
      "D": 31,
      "E": 32,
      "F": 33,
      "G": 34,
      "H": 35,
      "I": 36,
      "J": 37,
      "K": 38,
      "L": 39,
      "M": 40,
      "N": 41,
      "O": 42,
      "P": 43,
      "R": 44,
      "S": 45,
      "T": 46,
      "U": 47,
      "V": 48,
      "W": 49,
      "Y": 50,
      "Z": 51,
      "a": 52,
      "b": 53,
      "c": 54,
      "d": 55,
      "e": 56,
      "f": 57,
      "g": 58,
      "h": 59,
      "i": 60,
      "j": 61,
      "k": 62,
      "l": 63,
      "m": 64,
      "n": 65,
      "o": 66,
      "p": 67,
      "r": 68,
      "s": 69,
      "t": 70,
      "u": 71,
      "v": 72,
      "w": 73,
      "y": 74,
      "z": 75,
      "Ĩ": 76,
      "ĩ": 77,
      "Ũ": 78,
      "ũ": 79,
      " ": 80,
      " ": 81,
      "▁": 82,
      "▁n": 83,
      "rĩ": 84,
      "▁m": 85,
      "▁a": 86,
      "th": 87,
      "wa": 88,
      "▁na": 89,
      "▁ũ": 90,
      "▁ma": 91,
      "ga": 92,
      "ra": 93,
      "ri": 94,
      "nd": 95,
      "▁k": 96,
      "gĩ": 97,
      "▁wa": 98,
      "in": 99,
      "▁nĩ": 100,
      "ci": 101,
      "rĩa": 102,
      "▁mũ": 103,
      "ndũ": 104,
      "ka": 105,
      "ya": 106,
      "▁N": 107,
      "re": 108,
      "▁i": 109,
      "kĩ": 110,
      "ta": 111,
      "ma": 112,
      "rũ": 113,
      "ke": 114,
      "na": 115,
      "tũ": 116,
      "gũ": 117,
      "tha": 118,
      "ho": 119,
      "wo": 120,
      "ĩrĩ": 121,
      "we": 122,
      "ia": 123,
      "▁ci": 124,
      ".\n": 125,
      "▁o": 126,
      "the": 127,
      "▁J": 128,
      "ha": 129,
      "▁M": 130,
      "▁kũ": 131,
      "▁1": 132,
      "gu": 133,
      "ro": 134,
      ",\n": 135,
      "te": 136,
      "ria": 137,
      "ti": 138,
      "ni": 139,
      "▁cia": 140,
      "ne": 141,
      "ru": 142,
      "inĩ": 143,
      "▁ya": 144,
      "cio": 145,
      "▁Je": 146,
      "▁at": 147,
      "thi": 148,
      "▁nd": 149,
      "ku": 150,
      "ki": 151,
      "▁kĩ": 152,
      "▁A": 153,
      "go": 154,
      "tu": 155,
      "ko": 156,
      "▁rĩ": 157,
      "▁ĩ": 158,
      "mũ": 159,
      "-inĩ": 160,
      "▁2": 161,
      "mb": 162,
      "▁andũ": 163,
      "guo": 164,
      "▁ũrĩa": 165,
      "wĩ": 166,
      "he": 167,
      "thĩ": 168,
      "rwo": 169,
      "▁Jeho": 170,
      "▁gũ": 171,
      "▁akĩ": 172,
      "ngĩ": 173,
      "▁atĩrĩ": 174,
      "va": 175,
      "▁Jehova": 176,
      "ny": 177,
      "kũ": 178,
      "gai": 179,
      "oo": 180,
      "▁ha": 181,
      "▁gĩ": 182,
      "▁Na": 183,
      "▁\n": 184,
      "ge": 185,
      "▁ũcio": 186,
      "li": 187,
      "yo": 188,
      "▁I": 189,
      "me": 190,
      "▁Nĩ": 191,
      "▁ũndũ": 192,
      "rĩ,": 193,
      "ũra": 194,
      "▁mĩ": 195,
      "uu": 196,
      "no": 197,
      "ire": 198,
      "▁atĩrĩ,": 199,
      "▁ka": 200,
      "hi": 201,
      "arĩ": 202,
      "nj": 203,
      "▁rĩa": 204,
      "▁arĩa": 205,
      "▁Mũ": 206,
      "inya": 207,
      "tĩ": 208,
      "▁ta": 209,
      "nga": 210,
      "hĩ": 211,
      "mwe": 212,
      "ira": 213,
      "kwa": 214,
      "▁mũndũ": 215,
      "▁3": 216,
      "yũ": 217,
      "▁mb": 218,
      "mu": 219,
      "▁K": 220,
      "▁Ngai": 221,
      "hu": 222,
      "▁nj": 223,
      "thama": 224,
      "▁no": 225,
      "▁agĩ": 226,
      "gi": 227,
      "ingĩ": 228,
      "nya": 229,
      "▁T": 230,
      "eli": 231,
      "thamaki": 232,
      "bu": 233,
      "ndĩ": 234,
      "mba": 235,
      "coo": 236,
      "▁we": 237,
      "ĩra": 238,
      "rie": 239,
      "▁rũ": 240,
      "nda": 241,
      "▁H": 242,
      "▁tũ": 243,
      "-rĩ,": 244,
      "▁e": 245,
      "ũrũ": 246,
      "▁makĩ": 247,
      "▁b": 248,
      "othe": 249,
      "▁maa": 250,
      "tho": 251,
      "tũũra": 252,
      ";\n": 253,
      "▁thĩ": 254,
      "▁R": 255,
      "▁Is": 256,
      "▁ng": 257,
      "korwo": 258,
      "ngo": 259,
      "to": 260,
      "nyu": 261,
      "▁kũrĩ": 262,
      "▁Ma": 263,
      "▁aa": 264,
      "mo": 265,
      "▁nĩa": 266,
      "two": 267,
      "▁kĩa": 268,
      "nĩ": 269,
      "▁S": 270,
      "gwa": 271,
      "tuĩ": 272,
      "▁G": 273,
      "thiĩ": 274,
      "▁4": 275,
      "horo": 276,
      "uuma": 277,
      "ere": 278,
      "iraeli": 279,
      "▁atĩ": 280,
      "gaa": 281,
      "▁me": 282,
      "▁Isiraeli": 283,
      "▁mwa": 284,
      "uo": 285,
      "ũrũri": 286,
      "twa": 287,
      "gĩrĩ": 288,
      "rio": 289,
      "iĩ": 290,
      "▁kana": 291,
      "sa": 292,
      "iny": 293,
      "▁kuuma": 294,
      "▁Ũ": 295,
      "▁nĩguo": 296,
      "uĩ": 297,
      "mĩ": 298,
      "▁No": 299,
      "▁ũrĩ": 300,
      "rwa": 301,
      "nene": 302,
      "gũrũ": 303,
      "di": 304,
      "▁bũrũri": 305,
      "▁nginya": 306,
      "▁Nake": 307,
      "▁nda": 308,
      "▁mwe": 309,
      "▁tha": 310,
      "ũndũ": 311,
      "▁B": 312,
      "ruta": 313,
      "▁ũhoro": 314,
      "▁gĩa": 315,
      "ba": 316,
      "▁rwa": 317,
      "▁magĩ": 318,
      "▁iria": 319,
      "gia": 320,
      "▁mũrũ": 321,
      "wĩra": 322,
      "▁kũu": 323,
      "▁mũthamaki": 324,
      "▁rĩrĩa": 325,
      "da": 326,
      "kia": 327,
      "ii": 328,
      "uga": 329,
      "▁mai": 330,
      "▁ĩyo": 331,
      "gwo": 332,
      "riũ": 333,
      "hũ": 334,
      "▁ga": 335,
      "nia": 336,
      "ara": 337,
      "ina": 338,
      "▁kwa": 339,
      "▁na\n": 340,
      "▁W": 341,
      "▁niĩ": 342,
      "▁nyũ": 343,
      "▁nake": 344,
      "▁ndũ": 345,
      "▁mbere": 346,
      "njĩ": 347,
      "thani": 348,
      "mi": 349,
      "▁5": 350,
      "▁wo": 351,
      "ee": 352,
      "▁E": 353,
      "▁nĩma": 354,
      "hoo": 355,
      "▁othe": 356,
      "ika": 357,
      "▁wake": 358,
      "kĩra": 359,
      "▁maũndũ": 360,
      "thenya": 361,
      "ca": 362,
      "nja": 363,
      "▁marĩ": 364,
      "iga": 365,
      "▁mo": 366,
      "igu": 367,
      "ana": 368,
      "▁ĩrĩa": 369,
      "gũkorwo": 370,
      "gĩra": 371,
      "▁nyũmba": 372,
      "iri": 373,
      "▁arĩ": 374,
      "tie": 375,
      "ndo": 376,
      "mia": 377,
      "▁6": 378,
      "▁rĩrĩ,": 379,
      "▁D": 380,
      "▁Jes": 381,
      "▁ũguo": 382,
      "▁thĩinĩ": 383,
      "cooka": 384,
      "▁igũrũ": 385,
      "▁marĩa": 386,
      "▁hamwe": 387,
      "le": 388,
      "▁ngo": 389,
      "cooke": 390,
      "thũ": 391,
      "hia": 392,
      "kĩrĩ": 393,
      "▁ndĩ": 394,
      "▁ũngĩ": 395,
      "nde": 396,
      "▁Jesũ": 397,
      "▁ũũ": 398,
      "▁iny": 399,
      "▁7": 400,
      "▁to": 401,
      "▁maarĩ": 402,
      "thu": 403,
      "▁wakwa": 404,
      "▁hĩ": 405,
      "mĩrĩ": 406,
      "▁Da": 407,
      "kaa": 408,
      "▁Mwa": 409,
      "▁O": 410,
      "ini": 411,
      "▁mũno": 412,
      "▁h": 413,
      "tiga": 414,
      "▁kĩrĩ": 415,
      "ine": 416,
      "thia": 417,
      "▁8": 418,
      "▁Jo": 419,
      "▁wothe": 420,
      "▁inyuĩ": 421,
      "tuĩka": 422,
      "rĩrĩ": 423,
      "▁10": 424,
      "thuu": 425,
      "▁nao": 426,
      "▁tondũ": 427,
      "▁9": 428,
      "itũ": 429,
      "▁Rĩ": 430,
      "gwĩ": 431,
      "▁ndu": 432,
      "▁hĩndĩ": 433,
      "▁aarĩ": 434,
      "▁ũmwe": 435,
      "▁Ju": 436,
      "▁12": 437,
      "▁11": 438,
      "▁rĩu": 439,
      "tarĩ": 440,
      "▁angĩ": 441,
      "ngata": 442,
      "▁gwa": 443,
      "ni,": 444,
      "▁nĩwe": 445,
      "bi": 446,
      "etha": 447,
      ":1": 448,
      "irie": 449,
      "▁ciothe": 450,
      "▁muo": 451,
      ":\n": 452,
      "aga": 453,
      "▁13": 454,
      "nu": 455,
      "▁he": 456,
      "▁acio": 457,
      "▁Ningĩ": 458,
      "▁hinya": 459,
      "▁guo": 460,
      "▁waku": 461,
      "tũma": 462,
      "o,": 463,
      "▁14": 464,
      "▁Ha": 465,
      "▁itũũra": 466,
      "▁harĩ": 467,
      "▁ny": 468,
      "lo": 469,
      "udi": 470,
      "▁Wee": 471,
      "▁Daudi": 472,
      "ũka": 473,
      "▁ũyũ": 474,
      "la": 475,
      "▁Ba": 476,
      "gongo": 477,
      "tirĩ": 478,
      "too": 479,
      "▁kuo": 480,
      "▁wĩ": 481,
      "ũũ": 482,
      "▁muoyo": 483,
      "thin": 484,
      "▁Mwathani": 485,
      "▁mũtu": 486,
      "kĩte": 487,
      "irwo": 488,
      "▁mũthenya": 489,
      "▁Hĩ": 490,
      "aka": 491,
      "▁15": 492,
      "▁te": 493,
      "meny": 494,
      "▁Nao": 495,
      "▁indo": 496,
      "▁tene": 497,
      "raga": 498,
      "kire": 499,
      "▁mothe": 500,
      "-N": 501,
      "▁mwĩ": 502,
      "mwĩra": 503,
      "kiuga": 504,
      "hin": 505,
      "gongona": 506,
      "▁16": 507,
      "ona": 508,
      "?\n": 509,
      "▁ngoro": 510,
      "mĩte": 511,
      "ngũ": 512,
      "▁ake": 513,
      "nge": 514,
      "▁irĩ": 515,
      "▁ndi": 516,
      "▁ngĩ": 517,
      "▁yake": 518,
      "▁gwĩ": 519,
      "▁kĩrĩa": 520,
      "habu": 521,
      "thĩnjĩ": 522,
      "▁Hĩndĩ": 523,
      "▁wanyu": 524,
      "▁w": 525,
      "▁ithe": 526,
      "kaga": 527,
      "tia": 528,
      "thĩnjĩri": 529,
      "▁17": 530,
      "▁Mũndũ": 531,
      "tũũ": 532,
      "▁nĩgũkorwo": 533,
      "▁Sa": 534,
      "▁warĩ": 535,
      "is": 536,
      "▁kũrĩa": 537,
      "era": 538,
      "▁Juda": 539,
      "tukũ": 540,
      "▁18": 541,
      "▁Andũ": 542,
      "nyii": 543,
      "▁Z": 544,
      "▁ariũ": 545,
      "ĩrĩria": 546,
      "▁akĩmũ": 547,
      "▁P": 548,
      "▁nja": 549,
      "▁wa\n": 550,
      "karũ": 551,
      "rĩte": 552,
      "▁gata": 553,
      "▁ ": 554,
      "kana": 555,
      "rire": 556,
      "▁mwena": 557,
      "▁ciao": 558,
      "-Ngai": 559,
      "▁Rĩrĩa": 560,
      "▁Mu": 561,
      "▁Jeru": 562,
      "▁macio": 563,
      "lemu": 564,
      "thĩnjĩri-Ngai": 565,
      "▁yo": 566,
      "ra,": 567,
      "▁19": 568,
      "▁Musa": 569,
      "kuuga": 570,
      "▁20": 571,
      "salemu": 572,
      "▁Jerusalemu": 573,
      "▁Ka": 574,
      "▁Nd": 575,
      "goo": 576,
      "hinda": 577,
      "▁witũ": 578,
      "▁mũnene": 579,
      "▁ndungata": 580,
      "▁wee": 581,
      "▁nya": 582,
      "geetha": 583,
      "▁ekuuga": 584,
      "▁mũrĩ": 585,
      "▁gũkũ": 586,
      "cia": 587,
      "▁nĩgeetha": 588,
      "hono": 589,
      "▁twa": 590,
      "▁wĩra": 591,
      "▁nga": 592,
      "▁Jehova,": 593,
      "▁21": 594,
      "▁ita": 595,
      "▁icio": 596,
      "▁ee": 597,
      "▁ĩta": 598,
      "▁ti": 599,
      "▁22": 600,
      "rongo": 601,
      "ĩtwa": 602,
      "▁make": 603,
      "kĩo": 604,
      "be": 605,
      "tio": 606,
      "ng": 607,
      "hiũ": 608,
      "▁ikũ": 609,
      "▁Mis": 610,
      "-\n": 611,
      "▁wega": 612,
      "▁ciake": 613,
      "▁Kũ": 614,
      "tuĩke": 615,
      "▁maaĩ": 616,
      "igua": 617,
      "mbo": 618,
      "▁yaku": 619,
      "mbĩ": 620,
      "ũria": 621,
      "▁Misiri": 622,
      "mbe": 623,
      "▁njĩra": 624,
      "▁Gũ": 625,
      "▁wao": 626,
      "▁nĩũ": 627,
      "shu": 628,
      "▁yothe": 629,
      "▁watho": 630,
      "▁He": 631,
      "▁23": 632,
      "hee": 633,
      "▁Nĩgũkorwo": 634,
      "ris": 635,
      "hooya": 636,
      "▁mĩrongo": 637,
      "mũre": 638,
      "▁itha": 639,
      "menya": 640,
      "▁ine": 641,
      "rĩ,\n": 642,
      "lũ": 643,
      "ũlũ": 644,
      "▁ngũ": 645,
      "rũga": 646,
      "▁Ja": 647,
      "▁mba": 648,
      "▁hau": 649,
      "▁handũ": 650,
      "tũũraga": 651,
      "tua": 652,
      "▁akĩĩra": 653,
      "kara": 654,
      "irĩ": 655,
      "▁hekarũ": 656,
      "ithi": 657,
      "▁thi": 658,
      "cookeria": 659,
      ":2": 660,
      "ora": 661,
      "▁guoko": 662,
      "▁ikũmi": 663,
      "kinya": 664,
      "▁akiuga": 665,
      "ugo": 666,
      "▁Be": 667,
      "▁25": 668,
      "▁ũcio,": 669,
      "ringa": 670,
      "▁inene": 671,
      "▁kĩndũ": 672,
      "▁24": 673,
      "▁yakwa": 674,
      "▁naguo": 675,
      "kiny": 676,
      "▁ara": 677,
      "gĩa": 678,
      "kanĩ": 679,
      "▁mata": 680,
      "▁aku": 681,
      "haa": 682,
      "higa": 683,
      "theru": 684,
      "igana": 685,
      "▁kĩu": 686,
      "▁rĩngĩ": 687,
      "▁maku": 688,
      "▁ngaa": 689,
      "-rĩ,\n": 690,
      "▁maga": 691,
      "▁maka": 692,
      "▁maitho": 693,
      "ri,": 694,
      "▁mũtumia": 695,
      "▁mũgwa": 696,
      "▁moko": 697,
      "▁Mũthamaki": 698,
      "reke": 699,
      "maga": 700,
      "▁nguo": 701,
      "▁irio": 702,
      "gatĩ": 703,
      "▁mehia": 704,
      "▁Gi": 705,
      "▁mũgwanja": 706,
      "kũrũ": 707,
      "-inĩ,": 708,
      "▁kwĩ": 709,
      "▁(": 710,
      "thingu": 711,
      "wĩrĩ": 712,
      "▁nĩo": 713,
      "▁ciana": 714,
      "ĩa": 715,
      "nire": 716,
      "ristũ": 717,
      "ngi": 718,
      "▁mwene": 719,
      "▁mao": 720,
      "▁Kristũ": 721,
      "ĩte": 722,
      "thuĩ": 723,
      "▁L": 724,
      "▁26": 725,
      "▁thuu": 726,
      "rai": 727,
      "▁rĩĩtwa": 728,
      "▁ri": 729,
      "▁27": 730,
      "mu,": 731,
      "hĩrĩ": 732,
      "▁nde": 733,
      "▁ciaku": 734,
      "00": 735,
      "▁aka": 736,
      "ndi": 737,
      "▁ũthamaki": 738,
      "haana": 739,
      "thonde": 740,
      "▁gũtirĩ": 741,
      "a,": 742,
      "▁ndũrĩrĩ": 743,
      "sha": 744,
      "cu": 745,
      "kio": 746,
      "kiu": 747,
      "▁anene": 748,
      "▁mbũ": 749,
      "itha": 750,
      "ganu": 751,
      "▁nĩnga": 752,
      "▁gatagatĩ": 753,
      "▁mati": 754,
      "▁akĩmwĩra": 755,
      "bo": 756,
      "!\n": 757,
      "▁moo": 758,
      "ũraga": 759,
      "▁thuutha": 760,
      "▁ki": 761,
      "▁ĩrĩ": 762,
      "▁nacio": 763,
      "▁mwaki": 764,
      "gĩrĩra": 765,
      "mwĩ": 766,
      "hota": 767,
      "moni": 768,
      "▁mĩaka": 769,
      "▁agĩthiĩ": 770,
      "▁akĩma": 771,
      "▁kĩĩ": 772,
      "tĩrĩ": 773,
      "bii": 774,
      "twe": 775,
      "▁Niĩ": 776,
      "▁28": 777,
      "▁ingĩ": 778,
      "▁thũ": 779,
      "gũnda": 780,
      "-H": 781,
      "ene": 782,
      "-nja": 783,
      "nĩrĩ": 784,
      "▁makwa": 785,
      "za": 786,
      "ili": 787,
      "yu": 788,
      "▁mũra": 789,
      "▁matũũra": 790,
      "tire": 791,
      "▁ũta": 792,
      "▁ihinda": 793,
      "-i": 794,
      "rehe": 795,
      "nabii": 796,
      "▁ĩmwe": 797,
      "▁atĩrĩ,\n": 798,
      "i,": 799,
      "ru,": 800,
      "meera": 801,
      "ka,": 802,
      "ria,": 803,
      "▁mee": 804,
      "▁Mwe": 805,
      "▁kũmũ": 806,
      "rĩra": 807,
      "kame": 808,
      "shi": 809,
      "ithia": 810,
      "tagwo": 811,
      "kuo": 812,
      "▁ndaa": 813,
      "▁29": 814,
      "gĩte": 815,
      "▁atĩrĩ:": 816,
      "▁mara": 817,
      "▁kũringa": 818,
      "ze": 819,
      "▁rĩake": 820,
      "▁nĩmũ": 821,
      "kubu": 822,
      "▁thahabu": 823,
      "▁mbaara": 824,
      "▁ro": 825,
      "guta": 826,
      "nye": 827,
      "hĩrĩga": 828,
      "mwa": 829,
      "tũm": 830,
      "do": 831,
      "iyũ": 832,
      "ngu": 833,
      "naga": 834,
      "▁Jakubu": 835,
      "su": 836,
      "riĩ": 837,
      "▁mũti": 838,
      "▁Ti": 839,
      "nini": 840,
      "▁F": 841,
      "▁makĩmũ": 842,
      "▁njia": 843,
      "▁ithuĩ": 844,
      "tĩĩ": 845,
      "ma-inĩ": 846,
      "de": 847,
      "rutĩ": 848,
      "▁Isiraeli,": 849,
      "▁Eli": 850,
      "▁nayo": 851,
      "▁Ngai,": 852,
      "ndu": 853,
      "hoke": 854,
      "ikara": 855,
      "▁nyina": 856,
      "rutwo": 857,
      "rũmĩrĩ": 858,
      "▁thaa": 859,
      "▁30": 860,
      "▁ũmũ": 861,
      "mbĩrĩria": 862,
      "one": 863,
      "ete": 864,
      "▁ngai": 865,
      "fa": 866,
      "irĩtu": 867,
      "▁Ĩ": 868,
      "▁manyu": 869,
      "therũ": 870,
      "▁kũringana": 871,
      "ũũĩ": 872,
      "ciaro": 873,
      "▁ciarĩ": 874,
      "▁mũga": 875,
      "▁nĩe": 876,
      "gĩre": 877,
      "▁thakame": 878,
      "▁maguta": 879,
      "kĩre": 880,
      "cookia": 881,
      "ragia": 882,
      "▁ũrĩa\n": 883,
      "▁mwana": 884,
      "ngoria": 885,
      "▁iruta": 886,
      "▁Saũlũ": 887,
      "gĩrĩire": 888,
      "▁ningĩ": 889,
      "▁ũgaa": 890,
      "▁mũũ": 891,
      "thio": 892,
      "▁tũrĩ": 893,
      "▁ru": 894,
      "▁ciira": 895,
      "▁Mo": 896,
      "▁atĩa": 897,
      "law": 898,
      "-itherũ": 899,
      "rigi": 900,
      "▁cianyu": 901,
      "toonya": 902,
      "▁nĩaka": 903,
      "▁oi": 904,
      "▁31": 905,
      "ita": 906,
      "▁ho": 907,
      "kuhĩ": 908,
      "rũme": 909,
      "▁maithe": 910,
      "nagia": 911,
      "lawii": 912,
      "fu": 913,
      "▁harĩa": 914,
      "rera": 915,
      "thĩĩ": 916,
      "▁nyamũ": 917,
      "moo": 918,
      "▁ũũru": 919,
      "kanĩro": 920,
      "▁Ga": 921,
      "oho": 922,
      "rĩo": 923,
      "hũũ": 924,
      "▁mangĩ": 925,
      "▁ira": 926,
      "▁kũndũ": 927,
      "▁ĩĩrĩ": 928,
      "thuuri": 929,
      "▁atĩrĩ:\n": 930,
      "gĩria": 931,
      "ce": 932,
      "▁aga": 933,
      "▁gũkĩra": 934,
      "▁Isa": 935,
      "▁ũkĩ": 936,
      "▁mũthĩnjĩri-Ngai": 937,
      "ĩka": 938,
      "▁So": 939,
      "hingo": 940,
      "iria": 941,
      "▁maruta": 942,
      "▁Nda": 943,
      "giri": 944,
      "nĩte": 945,
      "-wa": 946,
      "co": 947,
      "rĩria": 948,
      "kĩtie": 949,
      "▁mũriũ": 950,
      "▁nawe": 951,
      "▁To": 952,
      "heo": 953,
      "▁Mũthenya": 954,
      "▁Thabu": 955,
      "▁Re": 956,
      "▁mwĩrĩ": 957,
      "▁akwa": 958,
      "▁igongona": 959,
      "▁Alawii": 960,
      "▁Kĩ": 961,
      "▁Thaburi": 962,
      "bulo": 963,
      "▁ba": 964,
      "kora": 965,
      "▁kĩgongona": 966,
      "cũ": 967,
      "▁Babulo": 968,
      "▁rũhiũ": 969,
      "▁magĩthiĩ": 970,
      "▁werũ": 971,
      "gire": 972,
      "▁mũci": 973,
      "▁Ta": 974,
      "▁mbũtũ": 975,
      "ga,": 976,
      "▁gĩothe": 977,
      "▁aya": 978,
      "▁matukũ": 979,
      "thiia": 980,
      "rathi": 981,
      "kwo": 982,
      "▁akĩmeera": 983,
      "▁Thi": 984,
      "▁Gĩ": 985,
      "▁32": 986,
      "nua": 987,
      "kĩtwo": 988,
      "▁Harũ": 989,
      "na,": 990,
      "ja": 991,
      "▁Me": 992,
      "yahu": 993,
      "▁moi": 994,
      "ni.": 995,
      "thaka": 996,
      "nĩra": 997,
      "gio": 998,
      "bura": 999,
      "▁Pa": 1000,
      "▁mako": 1001,
      "▁yao": 1002,
      "kie": 1003,
      "▁kĩrĩkanĩro": 1004,
      "thini": 1005,
      "▁mage": 1006,
      "▁athĩnjĩri-Ngai": 1007,
      "ũĩ": 1008,
      "here": 1009,
      "yahudi": 1010,
      "nwo": 1011,
      "▁Ithe": 1012,
      "▁C": 1013,
      "▁ũko": 1014,
      "mĩrĩri": 1015,
      "▁Roho": 1016,
      "▁gwĩka": 1017,
      "▁Mwene": 1018,
      "▁Jere": 1019,
      "▁kũma": 1020,
      "▁Tũ": 1021,
      "huu": 1022,
      "▁ciĩ": 1023,
      "▁mwarĩ": 1024,
      "▁Ze": 1025,
      "cunjĩ": 1026,
      "kua": 1027,
      "▁33": 1028,
      "▁riiri": 1029,
      "rũrũ": 1030,
      "nie": 1031,
      "▁njora": 1032,
      "iũ": 1033,
      "heri": 1034,
      "▁atu": 1035,
      "▁Jehova.": 1036,
      "▁Nĩnga": 1037,
      "gĩrĩria": 1038,
      "-Hinya": 1039,
      "▁She": 1040,
      "▁ũka": 1041,
      "nano": 1042,
      "▁Jeremia": 1043,
      "hooto": 1044,
      "▁Jehova\n": 1045,
      "▁rĩmwe": 1046,
      "▁nĩaga": 1047,
      "ro-inĩ": 1048,
      "▁maitũ": 1049,
      "hianano": 1050,
      "bũ": 1051,
      "▁nĩngũ": 1052,
      "▁Thuu": 1053,
      "ni.\n": 1054,
      "▁Solo": 1055,
      "▁Ne": 1056,
      "▁Agĩ": 1057,
      "▁Abi": 1058,
      "▁Mũrũ": 1059,
      "ũkĩrĩ": 1060,
      "▁thaahu": 1061,
      "▁gũtuĩka": 1062,
      "▁ata": 1063,
      "▁gĩku": 1064,
      "▁betha": 1065,
      "▁mwathi": 1066,
      "-W": 1067,
      "▁ciugo": 1068,
      "▁Mwene-Hinya": 1069,
      "▁tho": 1070,
      "▁hema": 1071,
      "-Wothe": 1072,
      "▁aingĩ": 1073,
      "▁matu": 1074,
      "▁Aa": 1075,
      "▁gwake": 1076,
      "▁hakuhĩ": 1077,
      "ĩre": 1078,
      "rũa": 1079,
      "▁kĩhooto": 1080,
      "ia,": 1081,
      "▁Mĩ": 1082,
      "▁ũrĩkũ": 1083,
      "gwe": 1084,
      "▁igai": 1085,
      "▁gĩake": 1086,
      "▁ũgĩ": 1087,
      "nio": 1088,
      "▁34": 1089,
      "ndete": 1090,
      "honokia": 1091,
      "▁magũrũ": 1092,
      "▁mũhĩrĩga": 1093,
      "▁Thuutha": 1094,
      "si": 1095,
      "▁ciakwa": 1096,
      "▁biũ": 1097,
      "thingo": 1098,
      "niĩ": 1099,
      "▁uu": 1100,
      "hũũra": 1101,
      "▁Tondũ": 1102,
      "inga": 1103,
      "▁nĩ\n": 1104,
      "enda": 1105,
      "▁Ayahudi": 1106,
      "-wa-nja": 1107,
      "se": 1108,
      "-a": 1109,
      "nyiita": 1110,
      "▁Za": 1111,
      "▁ĩtatũ": 1112,
      "ino": 1113,
      "▁akĩa": 1114,
      "▁wakwa,": 1115,
      "▁athamaki": 1116,
      "▁ũkaa": 1117,
      "▁igĩ": 1118,
      "▁mwaka": 1119,
      "fili": 1120,
      "▁itu": 1121,
      "thiũ": 1122,
      "▁agĩcooka": 1123,
      "▁Mwene-Hinya-Wothe": 1124,
      "irio": 1125,
      "▁iga": 1126,
      "-inĩ.": 1127,
      "ni\n": 1128,
      "▁Atĩrĩ": 1129,
      "▁njiaro": 1130,
      "hana": 1131,
      "niina": 1132,
      "kuu": 1133,
      "▁magaa": 1134,
      "▁Akĩ": 1135,
      "▁ĩngĩ": 1136,
      "▁thayũ": 1137,
      ":3": 1138,
      "▁ao": 1139,
      "reria": 1140,
      "▁makĩa": 1141,
      "▁ũmũthĩ": 1142,
      "▁Solomoni": 1143,
      "▁aro": 1144,
      "tharĩ": 1145,
      "no,": 1146,
      "sti": 1147,
      "ũrĩ": 1148,
      "ega": 1149,
      "▁mahĩ": 1150,
      "▁tiga": 1151,
      "▁mahiga": 1152,
      "ma,": 1153,
      "ire,": 1154,
      "thiiaga": 1155,
      "▁namo": 1156,
      "filisti": 1157,
      "▁ya\n": 1158,
      "▁guothe": 1159,
      "▁Kaĩ": 1160,
      "▁oo": 1161,
      "-inĩ\n": 1162,
      "kĩrĩria": 1163,
      "▁nyingĩ": 1164,
      "sufu": 1165,
      "ũru": 1166,
      "▁agĩĩ": 1167,
      "▁Joshu": 1168,
      "▁Jusufu": 1169,
      "ritũ": 1170,
      "mũeli": 1171,
      "▁ũũgĩ": 1172,
      "▁Samũeli": 1173,
      "uthu": 1174,
      "▁Inyu": 1175,
      "cuu": 1176,
      "▁ũma": 1177,
      "ra\n": 1178,
      "▁Mũti": 1179,
      "▁mũgũnda": 1180,
      "▁nyo": 1181,
      "▁arutwo": 1182,
      "▁ũtukũ": 1183,
      "tara": 1184,
      "▁o\n": 1185,
      "tungata": 1186,
      "▁kiugo": 1187,
      "▁kuu": 1188,
      "ciiria": 1189,
      "ni,\n": 1190,
      "▁andũ-a": 1191,
      "▁Maũndũ": 1192,
      "▁mwega": 1193,
      "▁Inyuĩ": 1194,
      "-ĩ": 1195,
      "inwo": 1196,
      "ic": 1197,
      "▁Ibura": 1198,
      "▁Nĩa": 1199,
      "▁Iburahĩ": 1200,
      "▁maya": 1201,
      "kono": 1202,
      "iraũ": 1203,
      "▁Firaũ": 1204,
      "▁nĩkĩ": 1205,
      "ro,": 1206,
      "zu": 1207,
      "▁35": 1208,
      "mbata": 1209,
      "oya": 1210,
      "▁mũtĩ": 1211,
      "▁Ariũ": 1212,
      "▁Joshua": 1213,
      "kiuma": 1214,
      "▁Paũlũ": 1215,
      "gĩrwo": 1216,
      "▁nĩmaka": 1217,
      "thondeke": 1218,
      "▁amũ": 1219,
      "▁kanua": 1220,
      "▁Ũrĩa": 1221,
      "▁makaa": 1222,
      "▁akĩĩ": 1223,
      "▁Jehova.\n": 1224,
      "gee": 1225,
      "▁ũtarĩ": 1226,
      "thaa": 1227,
      "-inĩ.\n": 1228,
      "ũrũrũ": 1229,
      "▁Si": 1230,
      "ikũrũ": 1231,
      "bibũ": 1232,
      "menye": 1233,
      "▁ndibe": 1234,
      "ena": 1235,
      "raya": 1236,
      "kagĩra": 1237,
      "▁Ahi": 1238,
      "▁andũ\n": 1239,
      "▁eerĩ": 1240,
      "tigĩra": 1241,
      "▁36": 1242,
      "iki": 1243,
      "hea": 1244,
      "ndĩkĩtwo": 1245,
      "▁Maa": 1246,
      "twara": 1247,
      "▁Githĩ": 1248,
      "▁nĩmo": 1249,
      "▁nĩtũ": 1250,
      "reka": 1251,
      "▁rĩakwa": 1252,
      "▁mũno,": 1253,
      "gooka": 1254,
      "▁Harũni": 1255,
      "▁ũga": 1256,
      "▁ũthingu": 1257,
      "theri": 1258,
      "▁Afilisti": 1259,
      "ngĩkorwo": 1260,
      "▁haa": 1261,
      "ndaga": 1262,
      "▁matarĩ": 1263,
      "ra.": 1264,
      "▁ako": 1265,
      "▁Tha": 1266,
      "▁kuona": 1267,
      "ku,": 1268,
      "▁mũndũ-wa-nja": 1269,
      "▁Ngai.": 1270,
      "toonye": 1271,
      "▁mbarĩ": 1272,
      "▁mũtwe": 1273,
      "▁ĩkĩ": 1274,
      "▁rũci": 1275,
      "▁mweri": 1276,
      "▁Wa": 1277,
      "rika": 1278,
      "▁ikĩ": 1279,
      "▁ĩna": 1280,
      "▁gĩkĩ": 1281,
      "▁wake,": 1282,
      "▁Ti-itherũ": 1283,
      "▁Isaia": 1284,
      "▁ĩno": 1285,
      "▁Rĩu": 1286,
      "▁mũgambo": 1287,
      "▁mũciĩ": 1288,
      "▁Atĩrĩrĩ,": 1289,
      "-inĩ,\n": 1290,
      "▁mĩga": 1291,
      "▁amwe": 1292,
      "imu": 1293,
      "▁ũcio\n": 1294,
      "gĩrĩirwo": 1295,
      "▁ndũmĩrĩri": 1296,
      "rũgama": 1297,
      "▁nene": 1298,
      "▁maingĩ": 1299,
      "▁Ũhoro": 1300,
      "-M": 1301,
      "▁mĩtĩ": 1302,
      "▁Isiraeli.": 1303,
      "▁airĩtu": 1304,
      "▁ũra": 1305,
      "▁ũthiũ": 1306,
      "wenda": 1307,
      "▁kĩũ": 1308,
      "▁37": 1309,
      "▁noguo": 1310,
      "▁Matukũ": 1311,
      "thiĩre": 1312,
      "▁akĩmũcookeria": 1313,
      "mwo": 1314,
      "tingĩ": 1315,
      "thaitha": 1316,
      "gie": 1317,
      "tũũre": 1318,
      "▁mahee": 1319,
      "thiũrũrũ": 1320,
      "▁mĩkono": 1321,
      "cono": 1322,
      "ra.\n": 1323,
      "▁ũndũ\n": 1324,
      "▁nĩgũ": 1325,
      "rute": 1326,
      "▁Rũũĩ": 1327,
      "▁ndibei": 1328,
      "▁rĩĩrĩ": 1329,
      "▁Johana": 1330,
      "▁nakĩo": 1331,
      "gari": 1332,
      "▁nĩme": 1333,
      "▁mũkĩ": 1334,
      "buku": 1335,
      "▁thĩ,": 1336,
      "▁Ef": 1337,
      "▁ngu": 1338,
      "rĩire": 1339,
      "tĩkia": 1340,
      "▁aaganu": 1341,
      "▁inĩ": 1342,
      "▁ici": 1343,
      "▁ondu": 1344,
      "▁yanyu": 1345,
      "lea": 1346,
      "hwo": 1347,
      "ndũkũ": 1348,
      "hoti": 1349,
      "▁Rũ": 1350,
      "tonga": 1351,
      "ima": 1352,
      "rĩre": 1353,
      "gĩe": 1354,
      "rere": 1355,
      "▁rĩrĩ": 1356,
      "▁angĩkorwo": 1357,
      "▁Gũtirĩ": 1358,
      "▁moko-inĩ": 1359,
      "riga": 1360,
      "▁Nj": 1361,
      "▁mũnabii": 1362,
      "tũmĩte": 1363,
      "▁yarĩ": 1364,
      "▁ato": 1365,
      "▁mĩthenya": 1366,
      "▁ũnene": 1367,
      "▁maro": 1368,
      "▁gĩtĩ": 1369,
      "▁nĩĩ": 1370,
      "▁igĩrĩ": 1371,
      "▁igũrũ,": 1372,
      "nyũ": 1373,
      "▁38": 1374,
      "▁mbara": 1375,
      ":4": 1376,
      "▁njino": 1377,
      "▁irathĩ": 1378,
      "ĩrĩra": 1379,
      "▁cia\n": 1380,
      "hinga": 1381,
      "▁magongona": 1382,
      "▁Nũũ": 1383,
      "rega": 1384,
      "▁kĩrĩndĩ": 1385,
      "koragwo": 1386,
      "▁mbarathi": 1387,
      "▁ra": 1388,
      "▁arĩa\n": 1389,
      "▁We": 1390,
      "twĩ": 1391,
      "thima": 1392,
      "▁Jehova,\n": 1393,
      "▁U": 1394,
      "rĩtwo": 1395,
      "▁agaa": 1396,
      "▁maciaro": 1397,
      "▁njo": 1398,
      "eli,": 1399,
      "ciara": 1400,
      "kena": 1401,
      "mũhe": 1402,
      "mbũrũ": 1403,
      "▁mĩhianano": 1404,
      "▁bũrũri-inĩ": 1405,
      "▁gĩakwa": 1406,
      "▁Pete": 1407,
      "▁maitho-inĩ": 1408,
      "▁ndegwa": 1409,
      "tĩra": 1410,
      "▁Ra": 1411,
      "nĩria": 1412,
      "mbũ": 1413,
      "▁gũthiĩ": 1414,
      "▁gĩke": 1415,
      "▁Sha": 1416,
      "▁Ndũka": 1417,
      "gooca": 1418,
      "ithio": 1419,
      "▁Iburahĩmu": 1420,
      "zi": 1421,
      "kaya": 1422,
      "tũnga": 1423,
      "hĩtwa": 1424,
      "abi": 1425,
      "▁nuthu": 1426,
      "▁matia": 1427,
      "▁kĩmwe": 1428,
      "ire\n": 1429,
      "githĩ": 1430,
      ",00": 1431,
      "▁anabii": 1432,
      "te,": 1433,
      "tongoria": 1434,
      "▁La": 1435,
      "tũmwo": 1436,
      ",000": 1437,
      "mini": 1438,
      "ĩna": 1439,
      "haga": 1440,
      "▁agĩtũma": 1441,
      "▁ũguo,": 1442,
      "kai": 1443,
      "▁cio": 1444,
      "▁makĩria": 1445,
      "▁40": 1446,
      "▁ihiga": 1447,
      "ruru": 1448,
      "▁Ngai\n": 1449,
      "▁gathi": 1450,
      "▁Joa": 1451,
      "▁anyu": 1452,
      "▁Kuuma": 1453,
      "ye": 1454,
      "▁akaa": 1455,
      "▁ũmeny": 1456,
      "roda": 1457,
      "▁irĩma": 1458,
      "▁mamũ": 1459,
      "▁kĩe": 1460,
      "▁nge": 1461,
      "li,": 1462,
      "▁rĩaku": 1463,
      "▁ene": 1464,
      "▁nĩmaga": 1465,
      "▁wendo": 1466,
      "▁tũhũ": 1467,
      "rutani": 1468,
      "tũmaga": 1469,
      "ũthi": 1470,
      "▁naru": 1471,
      "▁Ara": 1472,
      "▁mĩgũnda": 1473,
      "nia,": 1474,
      "mĩrĩra": 1475,
      "▁ithandũkũ": 1476,
      "ciarĩ": 1477,
      "thaga": 1478,
      "thu,": 1479,
      "▁Joroda": 1480,
      "▁atumia": 1481,
      "▁matũ": 1482,
      "▁nĩcio": 1483,
      "haarĩ": 1484,
      "▁Kĩrĩ": 1485,
      "▁mũthamaki,": 1486,
      "▁gĩkuũ": 1487,
      "kirie": 1488,
      "▁haha": 1489,
      "ndatũ": 1490,
      "haka": 1491,
      "iguire": 1492,
      "▁rũciinĩ": 1493,
      "▁manene": 1494,
      "heana": 1495,
      "▁gĩcunjĩ": 1496,
      "▁witũ,": 1497,
      "mire": 1498,
      "watho": 1499,
      "▁ũtuĩke": 1500,
      "heria": 1501,
      "▁mĩthiĩre": 1502,
      "▁ĩtano": 1503,
      "▁marakara": 1504,
      "▁Thiĩ": 1505,
      "-G": 1506,
      "▁makiuga": 1507,
      "ngĩko": 1508,
      "▁gũta": 1509,
      "▁thigari": 1510,
      "▁ngiri": 1511,
      "▁ũgũ": 1512,
      "▁agĩcookia": 1513,
      "uĩke": 1514,
      "thiũrũrũkĩ": 1515,
      "▁atongoria": 1516,
      "rithia": 1517,
      "▁nĩnda": 1518,
      "▁nĩkĩo": 1519,
      "▁kĩarĩ": 1520,
      "▁Ayu": 1521,
      "▁mbu": 1522,
      "▁ngano": 1523,
      "o.": 1524,
      "▁waganu": 1525,
      "▁mũthi": 1526,
      "thĩte": 1527,
      "▁kwarĩ": 1528,
      "njamini": 1529,
      "▁ngaari": 1530,
      "hokeku": 1531,
      "▁Moabi": 1532,
      ":5": 1533,
      "▁wayo": 1534,
      "thabibũ": 1535,
      "▁Hema": 1536,
      "gĩrĩre": 1537,
      "eeca": 1538,
      "menyere": 1539,
      "▁Petero": 1540,
      "oni": 1541,
      "rirwo": 1542,
      "▁ko": 1543,
      "▁39": 1544,
      "▁Ũũ": 1545,
      "raihu": 1546,
      "▁Efira": 1547,
      "▁ũtu": 1548,
      "▁nĩwa": 1549,
      "rumi": 1550,
      "▁gũtũũra": 1551,
      "▁ithatũ": 1552,
      "▁Bethi": 1553,
      "▁Firaũni": 1554,
      "ĩaga": 1555,
      "▁athuuri": 1556,
      "rimũ": 1557,
      "▁kũngĩ": 1558,
      "▁ũcio.": 1559,
      "▁Nĩma": 1560,
      "hurũ": 1561,
      "▁gĩaku": 1562,
      "▁mang": 1563,
      "ririe": 1564,
      "▁rũciaro": 1565,
      "▁kuuga": 1566,
      "icĩ": 1567,
      "▁Juda,": 1568,
      "▁mũraika": 1569,
      "▁ũtheri": 1570,
      "▁ũhoti": 1571,
      "▁makũ": 1572,
      "▁matiga": 1573,
      "kĩire": 1574,
      "tĩte": 1575,
      "▁wake.": 1576,
      "themba": 1577,
      "▁Ho": 1578,
      "▁Ge": 1579,
      "▁wĩtĩ": 1580,
      "▁Ndũ": 1581,
      "rete": 1582,
      "▁Ũndũ": 1583,
      "▁gĩkeno": 1584,
      "▁hi": 1585,
      "ka.": 1586,
      "humb": 1587,
      "amu": 1588,
      "▁ũkũ": 1589,
      "▁kĩnene": 1590,
      "▁ĩgĩ": 1591,
      "▁akĩmũũria": 1592,
      "▁ekuuga.\n": 1593,
      "gweta": 1594,
      "atha": 1595,
      "▁kũũ": 1596,
      "▁kũruta": 1597,
      "▁rũthingo": 1598,
      "▁thoguo": 1599,
      "▁nĩkuo": 1600,
      "▁Kĩa": 1601,
      "huho": 1602,
      "ikaraga": 1603,
      "▁gatagatĩ-inĩ": 1604,
      "▁tu": 1605,
      "gathini": 1606,
      "▁rĩa\n": 1607,
      "tĩre": 1608,
      "njĩĩra": 1609,
      "▁ruo": 1610,
      "▁andũ-a-nja": 1611,
      "▁irathĩro": 1612,
      "▁matũũraga": 1613,
      "▁mawatho": 1614,
      "▁kambĩ": 1615,
      "▁mbeeca": 1616,
      "humbĩ": 1617,
      "batũ": 1618,
      "▁maita": 1619,
      "▁nyama": 1620,
      "▁Nĩngũ": 1621,
      "▁rũrĩrĩ": 1622,
      "keri": 1623,
      "▁Athamaki": 1624,
      "▁mũndũ\n": 1625,
      "▁ngombo": 1626,
      "▁Benjamini": 1627,
      "▁rangi": 1628,
      "▁a\n": 1629,
      "▁arũme": 1630,
      "▁ũi": 1631,
      "▁wathani": 1632,
      "rutire": 1633,
      "ngĩri": 1634,
      "tũũgĩ": 1635,
      "▁njamba": 1636,
      "aya": 1637,
      "▁ngi": 1638,
      "kania": 1639,
      "▁41": 1640,
      "▁Baba": 1641,
      "▁Agĩcooka": 1642,
      "▁riũ": 1643,
      "▁ũro": 1644,
      "▁ndo": 1645,
      "▁ndũrũ": 1646,
      "ngĩrĩ": 1647,
      "▁mwĩhĩtwa": 1648,
      "▁ciĩko": 1649,
      "nea": 1650,
      "▁rĩothe": 1651,
      "▁thu": 1652,
      "▁nĩkũ": 1653,
      "kundi": 1654,
      "▁gĩthaka": 1655,
      "▁ndũka": 1656,
      "ngwo": 1657,
      "▁mahiũ": 1658,
      "hĩtie": 1659,
      "▁Mana": 1660,
      "▁Zayu": 1661,
      "▁gathigathini": 1662,
      "min": 1663,
      "tũrũme": 1664,
      "▁ndarĩ": 1665,
      "▁ndĩra": 1666,
      "▁ũũ:": 1667,
      "▁nduma": 1668,
      "▁gwaku": 1669,
      "▁tene.\n": 1670,
      "▁Jerusalemu,": 1671,
      "▁Misiri,": 1672,
      "▁Thabatũ": 1673,
      "▁r": 1674,
      "▁itarĩ": 1675,
      "nete": 1676,
      "▁mĩena": 1677,
      "hie": 1678,
      "▁Dani": 1679,
      "rigiicĩ": 1680,
      "▁Ayubu": 1681,
      "bũrũri": 1682,
      "eri": 1683,
      "▁kĩhingo": 1684,
      "▁ũcio-rĩ,": 1685,
      "nju": 1686,
      "▁mũno.": 1687,
      "tũmire": 1688,
      "▁Babuloni": 1689,
      "▁ibuku": 1690,
      "roo": 1691,
      "▁ũguo-rĩ,": 1692,
      "thondeka": 1693,
      "tĩĩo": 1694,
      "hingĩ": 1695,
      "▁age": 1696,
      "▁kee": 1697,
      "thie": 1698,
      "▁Ashu": 1699,
      "rutaga": 1700,
      "▁ĩyo,": 1701,
      "▁mahĩtia": 1702,
      "she": 1703,
      "tariĩ": 1704,
      "▁ombe": 1705,
      "▁Mwĩ": 1706,
      "neana": 1707,
      "▁Isiraeli\n": 1708,
      "di,": 1709,
      "aragia": 1710,
      "cango": 1711,
      "▁guoya": 1712,
      "heete": 1713,
      "▁mita": 1714,
      "ke,": 1715,
      "▁cie": 1716,
      "njo": 1717,
      "▁njega": 1718,
      "▁Tene": 1719,
      "nĩtie": 1720,
      "▁ũrĩo": 1721,
      "▁Jona": 1722,
      "ngere": 1723,
      "▁mĩgate": 1724,
      "▁ma\n": 1725,
      "▁Asa": 1726,
      "tongo": 1727,
      "▁Makĩ": 1728,
      "▁42": 1729,
      "▁mwanangĩko": 1730,
      "▁Manase": 1731,
      "rikana": 1732,
      "▁Ngũ": 1733,
      "▁mbĩrĩra": 1734,
      "ndĩko": 1735,
      "▁Ũguo": 1736,
      "▁ti-itherũ": 1737,
      "domu": 1738,
      "▁ndũrũme": 1739,
      "hiny": 1740,
      "waĩ": 1741,
      "▁mate": 1742,
      "▁nĩũka": 1743,
      "herio": 1744,
      "▁Mũru": 1745,
      "▁maathani": 1746,
      "▁wanyu,": 1747,
      "▁mathiĩ": 1748,
      "retwo": 1749,
      "tĩkĩrĩ": 1750,
      "▁athingu": 1751,
      "▁kĩngĩ": 1752,
      "kũngũ": 1753,
      "tĩkĩtie": 1754,
      "iguĩte": 1755,
      "ithie": 1756,
      "▁igana": 1757,
      "cina": 1758,
      "lia": 1759,
      "▁ũte": 1760,
      "gũa": 1761,
      "kũũ": 1762,
      "nyama": 1763,
      "honokio": 1764,
      "▁guoko-inĩ": 1765,
      "▁ngaatho": 1766,
      "zaru": 1767,
      "▁mũka": 1768,
      "ngano": 1769,
      "▁rũhuho": 1770,
      "▁meciiria": 1771,
      "▁nginya\n": 1772,
      "▁muoyo,": 1773,
      "▁roho": 1774,
      "▁riũa": 1775,
      "▁the": 1776,
      "▁nũũ": 1777,
      "▁mabũrũri": 1778,
      "thire": 1779,
      "heire": 1780,
      "▁akĩũria": 1781,
      "▁gĩcango": 1782,
      "▁ũmwe,": 1783,
      "▁matuĩke": 1784,
      "ka\n": 1785,
      "ka.\n": 1786,
      "nitha": 1787,
      "▁Magĩ": 1788,
      "▁43": 1789,
      "▁Baa": 1790,
      "nyiitwo": 1791,
      "▁ama": 1792,
      "▁narĩo": 1793,
      "▁mũthia": 1794,
      "bati": 1795,
      "▁werũ-inĩ": 1796,
      "tharĩkĩra": 1797,
      "▁Mũrungu": 1798,
      "▁mũthuuri": 1799,
      "▁ithũ": 1800,
      "▁Mũtheru": 1801,
      "▁Ko": 1802,
      "nyari": 1803,
      "▁rũrĩa": 1804,
      "▁aana": 1805,
      "tũnganwo": 1806,
      "▁kũri": 1807,
      "▁Angĩkorwo": 1808,
      "▁gĩta": 1809,
      "▁Isiraeli.\n": 1810,
      "▁gwakwa": 1811,
      "▁Mwathani,": 1812,
      "riata": 1813,
      "▁kĩrĩra": 1814,
      "▁ce": 1815,
      "▁githĩ": 1816,
      "▁nĩyo": 1817,
      "▁Aha": 1818,
      "goro": 1819,
      "rwo,": 1820,
      "gera": 1821,
      "nĩrĩra": 1822,
      "▁bata": 1823,
      "-ha": 1824,
      "▁ũbu": 1825,
      "▁kũrũmĩrĩ": 1826,
      "▁akĩoya": 1827,
      "▁rũu": 1828,
      "▁mooru": 1829,
      "▁iti": 1830,
      "rũma": 1831,
      "ĩrĩire": 1832,
      "romo": 1833,
      "thira": 1834,
      "koma": 1835,
      "hĩtũ": 1836,
      "boamu": 1837,
      "rigitha": 1838,
      "▁ũmenyo": 1839,
      "▁kĩeha": 1840,
      "reire": 1841,
      "▁Naguo": 1842,
      "▁rĩarĩ": 1843,
      "hĩte": 1844,
      "▁no\n": 1845,
      "▁thĩ.": 1846,
      "▁Shi": 1847,
      "▁itũũra-inĩ": 1848,
      "▁nye": 1849,
      ":6": 1850,
      "kĩrwo": 1851,
      "▁kũi": 1852,
      "▁baba": 1853,
      "ĩrwo": 1854,
      "▁mũgaa": 1855,
      "ria\n": 1856,
      "mũra": 1857,
      "▁njĩ": 1858,
      "▁45": 1859,
      "▁wake.\n": 1860,
      "▁maarĩ:\n": 1861,
      "▁hinya,": 1862,
      "hingũ": 1863,
      "▁Le": 1864,
      "▁Joabu": 1865,
      "lu": 1866,
      "▁nĩndĩ": 1867,
      "▁ihe": 1868,
      "tunya": 1869,
      "▁ĩtarĩ": 1870,
      "▁mũndũ,": 1871,
      "▁makĩma": 1872,
      "ũkĩrĩra": 1873,
      "rigithathi": 1874,
      "ĩ,": 1875,
      "▁matha": 1876,
      "▁magi": 1877,
      "re,": 1878,
      "ruga": 1879,
      "ruti": 1880,
      "hoota": 1881,
      "▁Heze": 1882,
      "▁Hezekia": 1883,
      "-ya": 1884,
      "kwenda": 1885,
      "▁inya": 1886,
      "▁ũtonga": 1887,
      "▁mũirĩtu": 1888,
      "▁itoonye": 1889,
      "ria.": 1890,
      "▁mĩthabibũ": 1891,
      "nyua": 1892,
      "▁mega": 1893,
      "▁Daudi\n": 1894,
      "▁mbũri": 1895,
      "▁Isaaka": 1896,
      "nũ": 1897,
      "nĩrĩria": 1898,
      "▁mũnini": 1899,
      "▁ciitũ": 1900,
      "▁gũthini": 1901,
      "nĩre": 1902,
      "▁kana\n": 1903,
      "▁ndaarĩ": 1904,
      "hooe": 1905,
      "▁mũno.\n": 1906,
      "▁Ndi": 1907,
      "▁kĩro": 1908,
      "ingata": 1909,
      "▁ihingo": 1910,
      "gũtũũra": 1911,
      "hote": 1912,
      "▁atuĩke": 1913,
      "▁gũtũ": 1914,
      "▁akĩona": 1915,
      "▁ndũrĩ": 1916,
      "▁Eze": 1917,
      "▁tene.": 1918,
      "▁rũrĩ": 1919,
      "▁waku,": 1920,
      "▁ake,": 1921,
      "▁magana": 1922,
      "▁cekeri": 1923,
      "▁ũira": 1924,
      "▁ithenya": 1925,
      "huru": 1926,
      "▁nowe": 1927,
      "▁Kaana": 1928,
      "▁agĩĩta": 1929,
      "▁mbura": 1930,
      "▁mana": 1931,
      "▁nĩrĩ": 1932,
      "▁mũingĩ": 1933,
      "▁ciao,": 1934,
      "thiire": 1935,
      "▁rĩ,": 1936,
      "▁hwaĩ": 1937,
      "▁wĩtĩkio": 1938,
      "▁mahinda": 1939,
      "▁mũngĩ": 1940,
      "▁mũthingu": 1941,
      "ke\n": 1942,
      "▁ciũ": 1943,
      "tĩkĩ": 1944,
      "▁44": 1945,
      "▁maika": 1946,
      "cakaya": 1947,
      "▁yake,": 1948,
      "▁Sama": 1949,
      "▁njiarwa": 1950,
      "ũkĩra": 1951,
      "▁mũta": 1952,
      "niinwo": 1953,
      "▁kau": 1954,
      "▁ndĩmũ": 1955,
      "▁kĩũngano": 1956,
      "▁nĩarĩ": 1957,
      "thĩtie": 1958,
      "nyo": 1959,
      "nyuu": 1960,
      "▁thĩĩna": 1961,
      "▁ndĩma": 1962,
      "thingi": 1963,
      "dia": 1964,
      "▁agĩtuĩka": 1965,
      "▁atĩa?": 1966,
      "thĩĩni": 1967,
      "▁Ashuri": 1968,
      "▁ũbumba": 1969,
      "▁ma,": 1970,
      "▁nĩrĩo": 1971,
      "▁kũraya": 1972,
      "thĩkĩra": 1973,
      "▁haarĩ": 1974,
      "▁maatũũraga": 1975,
      "nĩire": 1976,
      "salo": 1977,
      "▁mũtika": 1978,
      "ũrĩa": 1979,
      "▁ũre": 1980,
      "riko": 1981,
      "▁Ama": 1982,
      "▁akĩrĩ": 1983,
      "kũũra": 1984,
      "ooke": 1985,
      "▁Ru": 1986,
      "nĩro": 1987,
      "▁Gĩa": 1988,
      "▁rĩu,": 1989,
      "toony": 1990,
      "▁kuo.": 1991,
      "kuua": 1992,
      "-Gũ": 1993,
      "gĩtwo": 1994,
      "▁ika": 1995,
      "▁andũ,": 1996,
      "gaatuĩka": 1997,
      "▁maigu": 1998,
      "▁gatatũ": 1999,
      "mũre,": 2000,
      "oragwo": 2001,
      "▁mũũgĩ": 2002,
      "-harĩa": 2003,
      "▁athiĩ": 2004,
      "▁ũtũ": 2005,
      "▁Mi": 2006,
      "tii": 2007,
      "▁Acio": 2008,
      "▁Ũyũ": 2009,
      "bata": 2010,
      "▁othe,": 2011,
      "▁aragu": 2012,
      "▁kilo": 2013,
      "▁meerĩ": 2014,
      "rikabu": 2015,
      "▁Efiraimu": 2016,
      "-Gũtũnganwo": 2017,
      "kieli": 2018,
      "▁makĩmwĩra": 2019,
      "▁46": 2020,
      "hũka": 2021,
      "iguaga": 2022,
      "▁kĩrĩma": 2023,
      "rĩrĩria": 2024,
      "▁ndirĩ": 2025,
      "▁wanyu.": 2026,
      "tuamba": 2027,
      "mooria": 2028,
      "▁keerĩ": 2029,
      "▁magigi": 2030,
      "iya": 2031,
      "itĩrĩ": 2032,
      "▁ate": 2033,
      "▁aika": 2034,
      "▁Ab": 2035,
      "▁mĩhĩrĩga": 2036,
      "▁agĩci": 2037,
      "▁kwaga": 2038,
      "-Ha": 2039,
      ":7": 2040,
      "▁mũge": 2041,
      "▁mũhu": 2042,
      "hĩta": 2043,
      "humba": 2044,
      "▁ndangĩ": 2045,
      "▁mũũru": 2046,
      "▁ithũĩ": 2047,
      "ĩrĩirie": 2048,
      "ki,": 2049,
      "mumu": 2050,
      "nyara": 2051,
      "▁thĩ.\n": 2052,
      "▁magĩcooka": 2053,
      "▁Daudi,": 2054,
      "▁ndigi": 2055,
      "kiumaga": 2056,
      "▁Elisha": 2057,
      "▁Ezekieli": 2058,
      "imo": 2059,
      "▁nakuo": 2060,
      "ciira": 2061,
      "kaĩra": 2062,
      "tambũrũ": 2063,
      "mbi": 2064,
      "mbũra": 2065,
      "▁mĩthemba": 2066,
      "mbaya": 2067,
      "▁wetagwo": 2068,
      "▁rĩrĩa\n": 2069,
      "▁ndigiri": 2070,
      "▁Pe": 2071,
      "herithia": 2072,
      "▁Watho": 2073,
      "▁Kĩambĩrĩria": 2074,
      "▁thiĩ": 2075,
      "▁ũthiĩ": 2076,
      "▁marikabu": 2077,
      "rima": 2078,
      "re.": 2079,
      "rora": 2080,
      "▁nĩamũ": 2081,
      "▁nĩguo\n": 2082,
      "▁ngoro-inĩ": 2083,
      "▁rungu": 2084,
      "▁Reke": 2085,
      "conori": 2086,
      "tina": 2087,
      "re\n": 2088,
      "▁Mika": 2089,
      "▁gĩthi": 2090,
      "▁Ithuĩ": 2091,
      "▁mũrũme": 2092,
      "▁gwĩtigĩra": 2093,
      "rutĩra": 2094,
      "cinwo": 2095,
      "▁bu": 2096,
      "▁nĩi": 2097,
      "hai": 2098,
      "▁mbe": 2099,
      "nĩirie": 2100,
      "▁ndaka": 2101,
      "igaga": 2102,
      "▁nĩkĩ?": 2103,
      "▁mũte": 2104,
      "nirie": 2105,
      "thi,": 2106,
      "wĩmbo": 2107,
      "▁tũgĩ": 2108,
      "tuĩte": 2109,
      "igue": 2110,
      "▁ciothe,": 2111,
      "▁wiki": 2112,
      "haanda": 2113,
      "▁akĩmacookeria": 2114,
      "▁mũkaa": 2115,
      "ka,\n": 2116,
      "▁ikundi": 2117,
      "tunga": 2118,
      "▁gũkĩ": 2119,
      "nje": 2120,
      "▁tũti": 2121,
      "▁Wĩ": 2122,
      "▁Jesũ,": 2123,
      "▁Bala": 2124,
      "▁ĩtandatũ": 2125,
      "▁thikĩrĩria": 2126,
      "▁akuũ": 2127,
      "5)": 2128,
      "kwĩ": 2129,
      "▁atũ": 2130,
      "gaya": 2131,
      "▁wao,": 2132,
      "niine": 2133,
      "▁gĩko": 2134,
      "▁taarĩ": 2135,
      "▁kuuma\n": 2136,
      "cinĩ": 2137,
      "▁hũ": 2138,
      "▁marũa": 2139,
      "tũmi": 2140,
      "mera": 2141,
      "▁Ngai.\n": 2142,
      "▁kũrĩ\n": 2143,
      "▁wakwa.": 2144,
      "▁haaro": 2145,
      "▁aanake": 2146,
      "-ya-Gũtũnganwo": 2147,
      "kwĩra": 2148,
      "ndwa": 2149,
      "guĩ": 2150,
      "hĩĩ": 2151,
      "▁kwagĩrĩire": 2152,
      "▁niĩ,": 2153,
      "▁wega,": 2154,
      "▁mũgwanja,": 2155,
      "fari": 2156,
      "nyũmba": 2157,
      ":8": 2158,
      "ti,": 2159,
      "▁Nacio": 2160,
      "▁magĩĩ": 2161,
      "hũthĩ": 2162,
      "▁njĩra-inĩ": 2163,
      "rũgamĩte": 2164,
      "▁Mũtikana": 2165,
      "▁Jonathani": 2166,
      "▁acooke": 2167,
      "ga\n": 2168,
      "▁igweta": 2169,
      "kene": 2170,
      "▁Nayo": 2171,
      "▁Nĩũ": 2172,
      "tĩkĩra": 2173,
      "bu,": 2174,
      "▁rũũ": 2175,
      "▁ũyũ,": 2176,
      "▁gwĩtĩkia": 2177,
      "▁arangĩri": 2178,
      "▁ũkoniĩ": 2179,
      "▁Nebu": 2180,
      "▁itugĩ": 2181,
      "ĩgu": 2182,
      "rirĩria": 2183,
      "▁Ngĩ": 2184,
      "▁Jero": 2185,
      "▁Ihinda": 2186,
      "hithĩ": 2187,
      "▁ta\n": 2188,
      "muo": 2189,
      "uĩte": 2190,
      "▁ndaigana": 2191,
      "▁Esa": 2192,
      "▁Handũ": 2193,
      "▁tene,": 2194,
      "dine": 2195,
      "▁thingo": 2196,
      "▁ndĩrĩ": 2197,
      "▁kĩhu": 2198,
      "mbire": 2199,
      "muona": 2200,
      "▁muoyo.": 2201,
      "▁Ndĩ": 2202,
      "▁hekarũ-inĩ": 2203,
      "o.\n": 2204,
      "zia": 2205,
      "thanju": 2206,
      "▁iria\n": 2207,
      "▁waku.\n": 2208,
      "▁mũnene,": 2209,
      "ama": 2210,
      "ri,\n": 2211,
      "▁wamũ": 2212,
      "▁ihoo": 2213,
      "rumbe": 2214,
      "▁Jehoia": 2215,
      "kũhe": 2216,
      "hitha": 2217,
      "▁nje": 2218,
      "▁agĩũka": 2219,
      "▁Thaa": 2220,
      "▁48": 2221,
      "sai": 2222,
      "▁ũngĩ,": 2223,
      ":15": 2224,
      "▁Kristũ,": 2225,
      "▁matiigana": 2226,
      "▁Esaũ": 2227,
      "rumbeta": 2228,
      "-ũrĩa": 2229,
      "kage": 2230,
      "mbia": 2231,
      "rwo\n": 2232,
      "▁mĩa": 2233,
      "nĩtio": 2234,
      "▁igũrũ.": 2235,
      "cookere": 2236,
      "▁kũhoro": 2237,
      "▁kĩone": 2238,
      "tumia": 2239,
      "▁akĩũ": 2240,
      "▁akĩnjĩĩra": 2241,
      "ũragwo": 2242,
      "nji": 2243,
      "▁Tiga": 2244,
      "▁47": 2245,
      "▁kuo,": 2246,
      "▁Gibe": 2247,
      "▁moimĩte": 2248,
      "leadi": 2249,
      "rũra": 2250,
      "▁kũgĩa": 2251,
      "heaga": 2252,
      "▁makĩĩ": 2253,
      "gaakorwo": 2254,
      "▁mbaũ": 2255,
      "▁gĩkundi": 2256,
      "thiũrũrũkĩirie": 2257,
      "na\n": 2258,
      "▁ndwa": 2259,
      "▁akĩmĩ": 2260,
      "hutia": 2261,
      "▁Su": 2262,
      "▁metha": 2263,
      "▁nyũmba-inĩ": 2264,
      "leku": 2265,
      "▁Jerusalemu.": 2266,
      "▁Abisalo": 2267,
      "ila": 2268,
      "▁akiuma": 2269,
      "▁kenda": 2270,
      "kagia": 2271,
      "▁Nĩtũ": 2272,
      "▁agĩatha": 2273,
      "▁kwaria": 2274,
      "▁Edomu": 2275,
      "▁marĩa\n": 2276,
      ":14": 2277,
      "kinyĩ": 2278,
      "▁rĩngĩ,": 2279,
      "-ĩ!\n": 2280,
      "▁Ndũkana": 2281,
      "du": 2282,
      "ragĩria": 2283,
      "ririkana": 2284,
      "▁mũhi": 2285,
      "nanga": 2286,
      "ru.": 2287,
      "▁Ke": 2288,
      "mĩtwo": 2289,
      "ikaro": 2290,
      "thũire": 2291,
      "▁Rĩĩtwa": 2292,
      ":12": 2293,
      "▁Elija": 2294,
      "▁nyoni": 2295,
      "▁Danieli": 2296,
      "▁Baali": 2297,
      "umĩte": 2298,
      "▁twĩ": 2299,
      "▁kĩheo": 2300,
      "▁Ako": 2301,
      "▁Aca": 2302,
      "▁kaĩ": 2303,
      "▁nju": 2304,
      "▁rũũru": 2305,
      "momo": 2306,
      "tuĩkĩte": 2307,
      "▁magĩũka": 2308,
      "▁eetagwo": 2309,
      "▁Lu": 2310,
      "ikũrũka": 2311,
      "-Mwe": 2312,
      "▁igoo": 2313,
      "ru,\n": 2314,
      "thikĩrĩria": 2315,
      "▁Ahabu": 2316,
      "▁ĩka": 2317,
      "▁mĩra": 2318,
      "nĩrie": 2319,
      "▁Nowe": 2320,
      "▁Bũrũri": 2321,
      "▁nake\n": 2322,
      "▁inyuĩ,": 2323,
      "▁mothe,": 2324,
      "kinyire": 2325,
      "▁mũtikana": 2326,
      "▁Thimo": 2327,
      "hĩrĩria": 2328,
      "ri.": 2329,
      "▁mũtongoria": 2330,
      "te.": 2331,
      "▁ciama": 2332,
      "gendo": 2333,
      "hunja": 2334,
      "▁Tu": 2335,
      "gũrũrũ": 2336,
      "▁nake,": 2337,
      "kĩrĩra": 2338,
      ":13": 2339,
      "menyithia": 2340,
      "▁wao.": 2341,
      "ithagia": 2342,
      "▁matũũra-inĩ": 2343,
      ":9": 2344,
      "▁kũmenya": 2345,
      "tigĩre": 2346,
      "kuru": 2347,
      "▁kĩyo": 2348,
      "tuĩra": 2349,
      "arĩria": 2350,
      "njũũĩ": 2351,
      "▁njee": 2352,
      "▁tũkĩ": 2353,
      "▁maata": 2354,
      "▁maamũ": 2355,
      "▁ngwa": 2356,
      "moni,": 2357,
      "tuĩkire": 2358,
      "▁atĩ\n": 2359,
      "iguĩra": 2360,
      ":11": 2361,
      "▁ngĩona": 2362,
      "▁nĩmũka": 2363,
      "fatu": 2364,
      "▁maheeni": 2365,
      "imaga": 2366,
      "▁ũigua": 2367,
      "ramu": 2368,
      "ringĩ": 2369,
      "▁kwe": 2370,
      "hotire": 2371,
      "teithia": 2372,
      "mũkĩra": 2373,
      "▁gũti": 2374,
      "▁gũkorwo": 2375,
      "geria": 2376,
      "▁njũ": 2377,
      "▁Thĩ": 2378,
      "inaina": 2379,
      "▁aarĩkia": 2380,
      "▁inene,": 2381,
      "a.": 2382,
      "hinya": 2383,
      "rĩtie": 2384,
      "raka": 2385,
      "▁nĩya": 2386,
      "ciiri": 2387,
      "▁mũca": 2388,
      "ke.": 2389,
      "na.\n": 2390,
      "thania": 2391,
      "▁ũcio.\n": 2392,
      "▁Nĩnda": 2393,
      "▁kamwe": 2394,
      "▁tũka": 2395,
      "▁aamũ": 2396,
      "▁mbere,": 2397,
      "▁nĩũga": 2398,
      "▁ihenya": 2399,
      "itho": 2400,
      "▁ũtũũraga": 2401,
      "▁mũhaka": 2402,
      "kadine": 2403,
      "▁kũigua": 2404,
      "▁Arĩa": 2405,
      "koo": 2406,
      "hera": 2407,
      "▁rũthanju": 2408,
      "▁Ũcio": 2409,
      "▁inyu": 2410,
      "▁hinya.\n": 2411,
      "▁ndigwa": 2412,
      "honokie": 2413,
      "▁thahabu,": 2414,
      "cuurio": 2415,
      "▁Gĩathĩ": 2416,
      "▁Nebukadine": 2417,
      "ri\n": 2418,
      "▁mũma": 2419,
      "▁rũkũngũ": 2420,
      "▁nyu": 2421,
      "▁nyamũre": 2422,
      "▁Ndari": 2423,
      "▁Ci": 2424,
      "▁Hema-ya-Gũtũnganwo": 2425,
      "▁hitho": 2426,
      "▁are": 2427,
      "▁mũgĩ": 2428,
      "▁mũtara": 2429,
      "na.": 2430,
      "thimwo": 2431,
      "▁gĩgĩ": 2432,
      "▁Mũriũ": 2433,
      "rie,": 2434,
      "▁rũrũ": 2435,
      "▁49": 2436,
      "▁No\n": 2437,
      ":10": 2438,
      "▁kuo.\n": 2439,
      "shafatu": 2440,
      "kua.": 2441,
      "▁korwo": 2442,
      "▁hũgũrũrũ": 2443,
      "▁Abisalomu": 2444,
      "garũrũ": 2445,
      "▁nĩika": 2446,
      "▁kũhooya": 2447,
      "nyũrũ": 2448,
      "ire.": 2449,
      "▁rũgendo": 2450,
      "▁Matha": 2451,
      "▁aathani": 2452,
      "▁50": 2453,
      "▁marĩĩtwa": 2454,
      "▁ciao.": 2455,
      "▁ekuuga.": 2456,
      "▁matatũ": 2457,
      "theru,": 2458,
      "▁matukũ-inĩ": 2459,
      "▁oogĩ": 2460,
      "imu,": 2461,
      "o\n": 2462,
      "tĩrĩria": 2463,
      "▁mao,": 2464,
      "retie": 2465,
      "▁iitũ": 2466,
      "▁akĩmooria": 2467,
      "cookire": 2468,
      "▁we,": 2469,
      "▁ekũ": 2470,
      "▁mwaganu": 2471,
      "▁kũu\n": 2472,
      "mie": 2473,
      "▁maũndũ\n": 2474,
      "▁kĩrĩma-inĩ": 2475,
      "-Nd": 2476,
      "▁Babuloni,": 2477,
      "minja": 2478,
      "▁inyuothe": 2479,
      "),": 2480,
      "ith": 2481,
      "▁wacio": 2482,
      "▁Jehoshafatu": 2483,
      "▁Itũũra": 2484,
      "▁mĩnyama": 2485,
      "▁Ku": 2486,
      "twarwo": 2487,
      "gĩrĩrio": 2488,
      "▁ũguo.": 2489,
      ":17": 2490,
      "▁waku,\n": 2491,
      "onaga": 2492,
      "tiarĩ": 2493,
      "tũũrĩte": 2494,
      "nginy": 2495,
      "▁ciake,": 2496,
      "▁araika": 2497,
      "▁ibuku-inĩ": 2498,
      "bira": 2499,
      "ikia": 2500,
      "o,\n": 2501,
      "▁akorwo": 2502,
      "ru.\n": 2503,
      "thika": 2504,
      "kuũ": 2505,
      "▁kĩrumi": 2506,
      "▁gĩtĩĩo": 2507,
      "▁kanitha": 2508,
      "▁kahĩĩ": 2509,
      "▁Se": 2510,
      "thugu": 2511,
      ":16": 2512,
      "tooĩ": 2513,
      "tũũrĩre": 2514,
      "hooyaga": 2515,
      "▁makoniĩ": 2516,
      "▁uumĩte": 2517,
      "riganĩ": 2518,
      "humbĩra": 2519,
      "▁Ngũmwĩra": 2520,
      "▁Thaama": 2521,
      "-haa": 2522,
      "igire": 2523,
      "mĩra": 2524,
      "yũra": 2525,
      "▁reke": 2526,
      "▁ũge": 2527,
      "▁ũhonokio": 2528,
      "▁nĩmoo": 2529,
      "te\n": 2530,
      "nenge": 2531,
      "▁ĩĩ": 2532,
      "thĩkagĩra": 2533,
      "ndĩka": 2534,
      "ndĩki": 2535,
      "ĩranĩro": 2536,
      "▁Nake\n": 2537,
      "▁othe\n": 2538,
      "▁waku.": 2539,
      "▁make,": 2540,
      "▁Misiri.": 2541,
      "▁matika": 2542,
      "▁ithũĩro": 2543,
      "gania": 2544,
      "tangĩ": 2545,
      "maiyũ": 2546,
      "hagia": 2547,
      "roni": 2548,
      "ne,": 2549,
      "▁ĩga": 2550,
      "tĩĩa": 2551,
      "rie\n": 2552,
      "▁Isiraeli,\n": 2553,
      "▁rwakwa": 2554,
      "▁mũrũũthi": 2555,
      "▁Oya": 2556,
      "thuura": 2557,
      "▁ita,": 2558,
      "▁yothe,": 2559,
      "▁Ũhoro-ũrĩa": 2560,
      "▁Jorodani": 2561,
      "▁ciũmbe": 2562,
      "▁Jeroboamu": 2563,
      "e.": 2564,
      "▁ũraihu": 2565,
      "▁mahũ": 2566,
      "▁makinya": 2567,
      "ciirĩ": 2568,
      "▁mũro": 2569,
      "▁icunjĩ": 2570,
      "ruma": 2571,
      "rubi": 2572,
      "▁Ari": 2573,
      "▁Kwa": 2574,
      "gĩrĩrwo": 2575,
      "rio,": 2576,
      "▁ũhoro-inĩ": 2577,
      "▁wakwa,\n": 2578,
      "▁tondũ\n": 2579,
      "▁njata": 2580,
      "rathima": 2581,
      "farisai": 2582,
      "gĩire": 2583,
      "▁mũtha": 2584,
      "▁Nu": 2585,
      "rũ,": 2586,
      "thagia": 2587,
      "▁Jehu": 2588,
      "thikwo": 2589,
      "▁ndoo": 2590,
      "kuona": 2591,
      "kuĩte": 2592,
      "▁gĩtũmi": 2593,
      "▁makĩĩra": 2594,
      "▁thĩ,\n": 2595,
      "▁Go": 2596,
      "▁ndũkana": 2597,
      "mithio": 2598,
      "▁Ndu": 2599,
      "▁mũrĩmo": 2600,
      "▁eekire": 2601,
      "▁Cia": 2602,
      "-Mũ": 2603,
      "▁njora,": 2604,
      "cine": 2605,
      "pa": 2606,
      "▁arũ": 2607,
      "▁mama": 2608,
      "▁matingĩ": 2609,
      "▁mũigana": 2610,
      "▁Nyũ": 2611,
      "nania": 2612,
      "▁gũikara": 2613,
      "▁gũtũũgĩ": 2614,
      "▁hatarĩ": 2615,
      "mete": 2616,
      "▁ekĩte": 2617,
      "▁kĩa\n": 2618,
      "▁rwake": 2619,
      "▁wothe,": 2620,
      "▁wao.\n": 2621,
      "raiha": 2622,
      "gũthaitha": 2623,
      "teng": 2624,
      "tithia": 2625,
      "▁ciayo": 2626,
      "kua,": 2627,
      "▁akĩruta": 2628,
      "meere": 2629,
      "no.": 2630,
      "▁kanini": 2631,
      "hĩtĩ": 2632,
      "▁Kũra": 2633,
      "thamaka": 2634,
      "▁agĩĩka": 2635,
      "▁wenda": 2636,
      "▁tha,": 2637,
      "▁mũthamaki.": 2638,
      "hoore": 2639,
      "▁wake,\n": 2640,
      "▁igũrũ,\n": 2641,
      "kĩrĩte": 2642,
      "gwĩka": 2643,
      "▁mwene,": 2644,
      "thĩĩna": 2645,
      "▁ũmaraya": 2646,
      "▁Rube": 2647,
      "e,": 2648,
      "ngai": 2649,
      "▁magũ": 2650,
      "gaga": 2651,
      "rũũĩ": 2652,
      "gua": 2653,
      "guu": 2654,
      "tige": 2655,
      "▁gĩtu": 2656,
      "▁tũthiĩ": 2657,
      "▁51": 2658,
      "▁ũngĩhota": 2659,
      "▁Mwarĩ": 2660,
      "▁Gũcooke": 2661,
      ":20": 2662,
      "▁magetha": 2663,
      "▁andũ-a-Nd": 2664,
      "▁mũkĩĩgu": 2665,
      "▁Bethi-": 2666,
      "ũrĩrĩ": 2667,
      "rĩtio": 2668,
      "▁mare": 2669,
      "▁iro": 2670,
      "▁iheo": 2671,
      "riai": 2672,
      "ria.\n": 2673,
      "ni-": 2674,
      "thikĩrĩ": 2675,
      "▁kĩra": 2676,
      "koniĩ": 2677,
      "▁Nĩwe": 2678,
      "hĩtwo": 2679,
      "hĩtia": 2680,
      "▁wone": 2681,
      "▁hamwe\n": 2682,
      ":19": 2683,
      "▁Bathaka": 2684,
      "▁mwĩho": 2685,
      "hingia": 2686,
      "▁Kũrĩ": 2687,
      "▁yothe.": 2688,
      "rekere": 2689,
      "▁akĩambĩrĩria": 2690,
      "▁Nebukadinezaru": 2691,
      ")\n": 2692,
      "aro": 2693,
      "imba": 2694,
      "zara": 2695,
      "▁amĩ": 2696,
      "▁ũke": 2697,
      "rigo": 2698,
      "ĩrĩgĩrĩ": 2699,
      "▁kĩo": 2700,
      "▁Atũmwo": 2701,
      "▁aatha": 2702,
      "▁kwandĩkĩtwo": 2703,
      "▁ndũũru": 2704,
      "▁Elea": 2705,
      "▁Jesũ\n": 2706,
      "▁Musa,": 2707,
      ":22": 2708,
      "▁oigĩte": 2709,
      "▁Gali": 2710,
      "cema": 2711,
      "▁Aamo": 2712,
      "▁mahĩndĩ": 2713,
      "kiumagara": 2714,
      "▁Mathayo": 2715,
      "▁aitũ": 2716,
      "ingo": 2717,
      "ciĩ": 2718,
      "▁mũkũrũ": 2719,
      "▁mũhianano": 2720,
      "rei": 2721,
      "▁irima": 2722,
      "taga": 2723,
      "rũmbũ": 2724,
      "kenia": 2725,
      "gũra": 2726,
      "gũtũma": 2727,
      "meleku": 2728,
      "▁Mũtumia": 2729,
      "▁rũnene": 2730,
      "▁ndaimo": 2731,
      "▁ndũga": 2732,
      "ciarwo": 2733,
      "▁rĩngĩ.": 2734,
      "▁rĩake.\n": 2735,
      "▁nĩekũ": 2736,
      "-harĩa-haa": 2737,
      "▁Luka": 2738,
      "▁Ũhoro-ũrĩa-Mwe": 2739,
      "▁twe": 2740,
      "▁ũritũ": 2741,
      "ri.\n": 2742,
      "▁wariĩ": 2743,
      "kaana": 2744,
      "yamũ": 2745,
      "▁ituĩke": 2746,
      "▁yao,": 2747,
      "kira": 2748,
      "▁Jehova-rĩ,": 2749,
      "kũri": 2750,
      "▁gĩtha": 2751,
      "rie.": 2752,
      "▁rũũĩ": 2753,
      "▁tũngĩ": 2754,
      "ba,": 2755,
      "kĩrĩre": 2756,
      "▁wakwa.\n": 2757,
      "▁harĩwe": 2758,
      "menyete": 2759,
      "▁oigire": 2760,
      "▁kĩũmbe": 2761,
      ":na": 2762,
      "fe": 2763,
      "imĩte": 2764,
      "▁ũhaana": 2765,
      "▁mayo": 2766,
      "▁mahu": 2767,
      "▁itua": 2768,
      "▁Mb": 2769,
      "▁ciacio": 2770,
      "tuuo": 2771,
      "▁agĩikara": 2772,
      "gitĩ": 2773,
      "mbara": 2774,
      "gaac": 2775,
      "▁mbere\n": 2776,
      "▁Mwaka": 2777,
      "▁mao.": 2778,
      "▁nĩngama": 2779,
      "rũmĩrĩire": 2780,
      "rigiicĩirie": 2781,
      "tiirĩrĩ": 2782,
      "▁igooti": 2783,
      "▁irigithathi": 2784,
      "honi": 2785,
      "tigĩrĩ": 2786,
      "▁ndingĩ": 2787,
      "ũrage": 2788,
      "▁kaba": 2789,
      "▁maandĩko": 2790,
      "▁ũrĩithio": 2791,
      "▁mũthamaki\n": 2792,
      "▁ĩyo\n": 2793,
      "▁niĩ\n": 2794,
      "▁nyũmba\n": 2795,
      "▁hinya,\n": 2796,
      "rũmĩrĩra": 2797,
      "▁honge": 2798,
      "▁atatũ": 2799,
      "▁Zayuni": 2800,
      "▁nyeki": 2801,
      "▁Gũcookerithia": 2802,
      "ĩrĩgĩrĩro": 2803,
      "ahotire": 2804,
      "▁yu": 2805,
      "▁tĩĩ": 2806,
      "rĩko": 2807,
      "▁athĩĩni": 2808,
      "▁ũgwa": 2809,
      "▁ũcuu": 2810,
      "▁matirĩ": 2811,
      "rama": 2812,
      "▁nĩiga": 2813,
      "▁mũmũ": 2814,
      "▁mũthiĩ": 2815,
      "tugo": 2816,
      "▁akĩgĩa": 2817,
      "▁mĩĩrĩ": 2818,
      "▁rĩao": 2819,
      "hĩria": 2820,
      "▁Hana": 2821,
      "▁ethe": 2822,
      "▁ngingo": 2823,
      "▁nĩama": 2824,
      "▁bũrũri\n": 2825,
      "▁ũhoro\n": 2826,
      "▁rwa\n": 2827,
      "inamĩrĩ": 2828,
      "▁52": 2829,
      "caria": 2830,
      "▁ngoo": 2831,
      "▁wothe\n": 2832,
      "▁Bethe": 2833,
      "▁mathagu": 2834,
      "▁njuĩrĩ": 2835,
      "▁Nyũmba": 2836,
      "▁ũkũrũ": 2837,
      "▁mũgee": 2838,
      "▁onire": 2839,
      "▁kũnj": 2840,
      "▁Iria": 2841,
      "▁kĩambĩrĩria": 2842,
      "▁inyuĩ.": 2843,
      "▁ciothe.\n": 2844,
      "▁hinya.": 2845,
      "▁Hama": 2846,
      "▁yake.\n": 2847,
      "gooci": 2848,
      "▁mũrango": 2849,
      "▁oimĩte": 2850,
      "cũth": 2851,
      "▁Mũtika": 2852,
      "humbĩte": 2853,
      "▁gĩtambaya": 2854,
      "▁kũhoroherio": 2855,
      "▁ũmo": 2856,
      "▁Mũra": 2857,
      "guũrĩ": 2858,
      "neka": 2859,
      "▁gũcooka": 2860,
      "▁gĩikaro": 2861,
      "mee": 2862,
      "ũrania": 2863,
      "ereke": 2864,
      "ikare": 2865,
      "▁ciothe.": 2866,
      "▁tene,\n": 2867,
      "▁make.\n": 2868,
      "▁Hebi": 2869,
      "mwĩre": 2870,
      "▁uumithio": 2871,
      "▁ũtugi": 2872,
      "▁Suriata": 2873,
      "▁mĩrango": 2874,
      "▁hũgũrũrũ-inĩ": 2875,
      "i\n": 2876,
      "▁y": 2877,
      "▁goro": 2878,
      "rĩirwo": 2879,
      "ri-inĩ": 2880,
      "▁mũtiga": 2881,
      "kĩa": 2882,
      "harũrũ": 2883,
      "▁kũraiha": 2884,
      "▁ndika": 2885,
      "▁gũũkĩrĩra": 2886,
      "▁gũcuurio": 2887,
      "▁mĩingĩ": 2888,
      "huta": 2889,
      "tuĩtwo": 2890,
      "mĩtie": 2891,
      "▁ndawa": 2892,
      "▁Bara": 2893,
      "▁ĩyo.": 2894,
      "▁nake.": 2895,
      "irikana": 2896,
      "▁ũmwe.": 2897,
      "▁yake.": 2898,
      "▁macio,": 2899,
      "rehere": 2900,
      "▁ũgaatuĩka": 2901,
      "hũũri": 2902,
      "▁makĩamba": 2903,
      "rekano": 2904,
      "▁narua": 2905,
      "▁thenge": 2906,
      "▁Leba": 2907,
      "▁andũ-a-Ndũrĩrĩ": 2908,
      "hũndũ": 2909,
      "▁atũũraga": 2910,
      "▁ũtungata": 2911,
      "gĩĩ": 2912,
      "▁waguo": 2913,
      "▁mũtũũrĩre": 2914,
      "nangĩ": 2915,
      "nagĩra": 2916,
      "kuhĩrĩria": 2917,
      "▁kĩĩrĩgĩrĩro": 2918,
      "▁Abura": 2919,
      "▁mĩromo": 2920,
      "▁kaana": 2921,
      "arĩkia": 2922,
      "▁Tho": 2923,
      "▁Hu": 2924,
      "▁tũrĩa": 2925,
      "gwata": 2926,
      "cookereria": 2927,
      "▁ndĩĩ": 2928,
      "▁mũno,\n": 2929,
      "menyire": 2930,
      "▁irĩma-inĩ": 2931,
      "▁matawa": 2932,
      "iyũrĩtwo": 2933,
      "suriata": 2934,
      "-ĩ!": 2935,
      "-B": 2936,
      "u,": 2937,
      "▁marũ": 2938,
      "rakara": 2939,
      "▁Ngoro": 2940,
      "▁kũge": 2941,
      "▁Afarisai": 2942,
      "koretwo": 2943,
      "hehe": 2944,
      "herie": 2945,
      "▁gũtũma": 2946,
      "▁gũkuhĩ": 2947,
      "▁Nĩ\n": 2948,
      "▁Nĩndĩ": 2949,
      "▁Ki": 2950,
      "▁merirĩria": 2951,
      ":18": 2952,
      "▁wĩhokeku": 2953,
      "▁gatani": 2954,
      "▁rĩngĩ.\n": 2955,
      "▁Gileadi": 2956,
      "onete": 2957,
      "▁nĩegũ": 2958,
      "site": 2959,
      "minj": 2960,
      "ciiragia": 2961,
      "birania": 2962,
      "▁Kũrathimwo": 2963,
      "▁mwĩhoko": 2964,
      "ige": 2965,
      "igĩrĩra": 2966,
      "rĩirie": 2967,
      "▁atarĩ": 2968,
      "▁aiguire": 2969,
      "▁mahooya": 2970,
      "▁ithi": 2971,
      "tũire": 2972,
      "ruo": 2973,
      "▁Aro": 2974,
      "▁rĩgĩ": 2975,
      "heirwo": 2976,
      "rwo.": 2977,
      "▁Igũrũ": 2978,
      "▁njaga": 2979,
      "▁agĩtoonya": 2980,
      "▁tũnua": 2981,
      "▁makĩũ": 2982,
      "▁gakwa": 2983,
      "▁Esite": 2984,
      "▁rĩake,": 2985,
      "ũkĩrĩre": 2986,
      "▁Maandĩko": 2987,
      "haarĩirie": 2988,
      "▁matigari": 2989,
      "conorithio": 2990,
      "▁Ndungata": 2991,
      "▁Lebano": 2992,
      "igĩte": 2993,
      "▁ũrutani": 2994,
      "▁mari": 2995,
      "▁nĩho": 2996,
      "▁nĩcia": 2997,
      "ke.\n": 2998,
      "▁gũkua": 2999,
      "▁gĩtũmĩte": 3000,
      "▁Nĩmũ": 3001,
      "cooki": 3002,
      "▁aama": 3003,
      "▁magĩĩka": 3004,
      "▁nyũngũ": 3005,
      "▁Elia": 3006,
      "nungi": 3007,
      "▁yaku,": 3008,
      "heetwo": 3009,
      "-igũrũ": 3010,
      "▁robo": 3011,
      "▁makĩmũũria": 3012,
      "dekia": 3013,
      "▁Gĩtuamba": 3014,
      "▁Zedekia": 3015,
      "▁biũ.\n": 3016,
      "▁Kĩrĩma": 3017,
      "▁itoonyero-inĩ": 3018,
      "-I": 3019,
      "ĩo": 3020,
      "gũtha": 3021,
      "thee": 3022,
      "▁kũnyuu": 3023,
      "▁mĩtugo": 3024,
      "tware": 3025,
      "▁gwaka": 3026,
      "▁nyĩ": 3027,
      "la,": 3028,
      "▁Kũu": 3029,
      "▁maaĩ,": 3030,
      "menyaga": 3031,
      "rũgamĩrĩ": 3032,
      "▁handũ-harĩa-haa": 3033,
      "▁hekarũ,": 3034,
      ":21": 3035,
      ":24": 3036,
      "▁mwaki,": 3037,
      "▁mbaara,": 3038,
      "tũmĩra": 3039,
      "▁Reho": 3040,
      "▁mwaka-inĩ": 3041,
      "▁cierĩ": 3042,
      ").\n": 3043,
      "▁atũmwo": 3044,
      "▁nĩgĩ": 3045,
      "▁mũkũ": 3046,
      "rũthi": 3047,
      "▁1:1": 3048,
      "▁ndee": 3049,
      "▁ndiga": 3050,
      "▁karĩ": 3051,
      "▁kanyu": 3052,
      "▁agĩũkĩra": 3053,
      "▁tũtũũra": 3054,
      "▁makĩona": 3055,
      "tuĩrwo": 3056,
      "thiĩte": 3057,
      "rio\n": 3058,
      "njamũ": 3059,
      "▁ĩrĩa\n": 3060,
      "▁thĩinĩ\n": 3061,
      "hĩrĩirie": 3062,
      "haanaga": 3063,
      "iyũrĩte": 3064,
      "▁betha,": 3065,
      "▁naruo": 3066,
      "nyoro": 3067,
      "sia": 3068,
      "uma": 3069,
      "▁maguo": 3070,
      "rini": 3071,
      "ride": 3072,
      "nago": 3073,
      "gũũ": 3074,
      "honia": 3075,
      "haic": 3076,
      "▁kũrũa": 3077,
      "ria,\n": 3078,
      "ru\n": 3079,
      "▁Aza": 3080,
      "▁gũgĩ": 3081,
      "▁Ingĩ": 3082,
      "ire.\n": 3083,
      "▁Te": 3084,
      "▁tũtũrũme": 3085,
      "nĩtwo": 3086,
      "▁thabibũ": 3087,
      "▁ndũngĩ": 3088,
      "nyiitĩte": 3089,
      "▁Jerusalemu\n": 3090,
      "▁witũ.": 3091,
      "rekereria": 3092,
      "▁mwene.": 3093,
      "▁Ĩno": 3094,
      "▁Zeka": 3095,
      "▁rwĩmbo": 3096,
      "▁mbeũ": 3097,
      "▁Balamu": 3098,
      "▁Aca,": 3099,
      "minjaminj": 3100,
      "nagogi": 3101,
      "▁mathĩĩna": 3102,
      "ta,": 3103,
      "taũ": 3104,
      "thana": 3105,
      "tigĩ": 3106,
      "goma": 3107,
      "▁andũ.": 3108,
      "▁Ihooya": 3109,
      "tĩtwo": 3110,
      "▁iria-inĩ": 3111,
      "▁nĩmarĩ": 3112,
      "▁othe.": 3113,
      "▁maũndũ-inĩ": 3114,
      "cookanĩrĩ": 3115,
      "▁wĩkaga": 3116,
      "▁muoyo.\n": 3117,
      "▁Juda.": 3118,
      "▁njaũ": 3119,
      "▁mbakũri": 3120,
      "kinyia": 3121,
      "kinyĩra": 3122,
      "▁mũgwanja.": 3123,
      "▁ndeto": 3124,
      "thĩĩnĩ": 3125,
      "▁Kĩhingo": 3126,
      "▁magegania": 3127,
      "▁Sheke": 3128,
      "▁igĩrĩ,": 3129,
      "thondeketwo": 3130,
      "▁Rĩu-rĩ,": 3131,
      "ciarĩirwo": 3132,
      "▁thunagogi": 3133,
      "aria": 3134,
      "po": 3135,
      "▁arutani": 3136,
      "▁mamwe": 3137,
      "▁makiuma": 3138,
      "gama": 3139,
      "▁mũtheru": 3140,
      "hathu": 3141,
      "▁ndia": 3142,
      "▁Ana": 3143,
      "▁Ame": 3144,
      "▁rĩera": 3145,
      "▁ĩtuĩke": 3146,
      "▁gĩkũ": 3147,
      "▁Indo": 3148,
      "▁kahinda": 3149,
      "▁agĩcookeria": 3150,
      "gwatĩre": 3151,
      "mĩĩra": 3152,
      "ini,": 3153,
      "tigagĩra": 3154,
      "▁nao\n": 3155,
      "▁Zi": 3156,
      "▁Pila": 3157,
      "▁ũthamaki,": 3158,
      "doni": 3159,
      "▁Pilato": 3160,
      "e\n": 3161,
      "▁hiũ": 3162,
      "▁imwe": 3163,
      "▁igaa": 3164,
      "there": 3165,
      "haraga": 3166,
      "▁Asuriata": 3167,
      "▁hanini": 3168,
      "▁gĩci": 3169,
      "hitho": 3170,
      "njia": 3171,
      "▁Maria": 3172,
      "▁ũrĩrĩ": 3173,
      "▁ndaga": 3174,
      "▁Juda\n": 3175,
      "gooce": 3176,
      "▁ciake.": 3177,
      "▁thiirĩ": 3178,
      "▁nĩngamũ": 3179,
      "▁kĩroto": 3180,
      "▁maikaraga": 3181,
      "▁ũmotho": 3182,
      "▁nyĩmbo": 3183,
      "haicĩte": 3184,
      "caragia": 3185,
      "hire": 3186,
      "tin": 3187,
      "▁ũmeere": 3188,
      "ragwo": 3189,
      "ririka": 3190,
      "▁Anga": 3191,
      "▁gũtoonya": 3192,
      "gaire": 3193,
      "▁Nakĩo": 3194,
      "hũmũ": 3195,
      "▁igũrũ.\n": 3196,
      "▁ũngĩ.": 3197,
      "▁hĩa": 3198,
      "▁wothe.": 3199,
      "▁nao,": 3200,
      "▁ciao.\n": 3201,
      "▁thiritũ": 3202,
      "▁arata": 3203,
      "▁makĩmũcookeria": 3204,
      "▁Mwene-Hinya-Wothe,": 3205,
      "▁akoiga": 3206,
      "hũkanio": 3207,
      "▁mĩnyamaro": 3208,
      "▁Ũhoro-ũrĩa-Mwega": 3209,
      "▁Aburamu": 3210,
      "rinitho": 3211,
      "ithũ": 3212,
      "oni,": 3213,
      "▁mũrimũ": 3214,
      "kĩrire": 3215,
      "ke,\n": 3216,
      "▁Jeriko": 3217,
      "thiraga": 3218,
      "tuo": 3219,
      "koima": 3220,
      "▁gũtarĩ": 3221,
      "▁gũũka": 3222,
      "▁akĩrũgama": 3223,
      "▁gĩthũ": 3224,
      "li.": 3225,
      "▁Ici": 3226,
      "▁Nĩaka": 3227,
      "▁mĩta": 3228,
      "▁mĩtwe": 3229,
      "▁Mũrĩ": 3230,
      "▁aaku": 3231,
      "▁nyũkwa": 3232,
      "▁ndũme": 3233,
      "▁53": 3234,
      "kaaga": 3235,
      "▁Daudi.": 3236,
      "▁ũyũ.": 3237,
      "kĩte,": 3238,
      "▁Jerusalemu.\n": 3239,
      "haandĩ": 3240,
      "▁Kristũ.": 3241,
      "▁akama": 3242,
      "▁Tim": 3243,
      "hokete": 3244,
      "▁Moride": 3245,
      "▁ĩĩrĩ,": 3246,
      "▁Simoni": 3247,
      "hinyĩrĩ": 3248,
      "haica": 3249,
      "riganĩrwo": 3250,
      "▁mahuti": 3251,
      "iyũra": 3252,
      "▁nĩmwa": 3253,
      "▁mũre": 3254,
      "taha": 3255,
      "gũithia": 3256,
      "▁kũũraga": 3257,
      "▁yayo": 3258,
      "▁kĩma": 3259,
      "▁Arĩ": 3260,
      "▁ĩra": 3261,
      "mes": 3262,
      "mena": 3263,
      "▁rũngĩ": 3264,
      "▁tũu": 3265,
      "▁ekaga": 3266,
      "▁Sara": 3267,
      "▁magĩkinya": 3268,
      "▁mothamaki": 3269,
      "▁Dames": 3270,
      "▁nĩwe\n": 3271,
      "kanĩtio": 3272,
      "▁Lo": 3273,
      "▁ũtangĩ": 3274,
      "shi,": 3275,
      "cũhĩ": 3276,
      "rathimo": 3277,
      "tharĩkĩre": 3278,
      "▁Njia": 3279,
      "yende": 3280,
      "▁Thiĩi": 3281,
      "hurũko": 3282,
      "nengera": 3283,
      "▁Esiteri": 3284,
      ":M": 3285,
      "ari": 3286,
      "imire": 3287,
      "▁ca": 3288,
      "▁mahaana": 3289,
      "▁mũi": 3290,
      "▁ima": 3291,
      "▁kũmĩ": 3292,
      "▁kũnyua": 3293,
      "guũ": 3294,
      "ro.": 3295,
      "▁Ada": 3296,
      "▁Ashi": 3297,
      "mbĩrĩirie": 3298,
      "▁gũgũ": 3299,
      "▁mĩthi": 3300,
      "▁karĩa": 3301,
      "ngaga": 3302,
      "mu.\n": 3303,
      "ndĩke": 3304,
      "▁aamũre": 3305,
      "▁Ũka": 3306,
      "▁ũrĩ\n": 3307,
      "dadi": 3308,
      "▁gatũrũme": 3309,
      "▁ũũkĩ": 3310,
      "▁Basha": 3311,
      "▁mwĩhokeku": 3312,
      "▁ekuuga:": 3313,
      "▁gũkũũra": 3314,
      "menyagĩrĩra": 3315,
      "▁kĩu,": 3316,
      "▁kwĩhoke": 3317,
      "▁Saũlũ,": 3318,
      "▁makĩambĩrĩria": 3319,
      "▁Kĩrĩma-inĩ": 3320,
      "▁rũrĩmĩ": 3321,
      "hurunj": 3322,
      "▁Samaria": 3323,
      "tungatĩra": 3324,
      "-o": 3325,
      "▁thamaki": 3326,
      "▁muu": 3327,
      "ratha": 3328,
      "rania": 3329,
      "▁wamo": 3330,
      "▁Amu": 3331,
      "▁gũthe": 3332,
      "▁gĩthima": 3333,
      "▁Na\n": 3334,
      "▁Naf": 3335,
      "yone": 3336,
      "▁njin": 3337,
      "ndĩkĩra": 3338,
      "▁maarĩ\n": 3339,
      "tigana": 3340,
      "▁kĩrĩro": 3341,
      "▁ndundu": 3342,
      "▁ngĩĩrwo": 3343,
      "▁twarĩ": 3344,
      "▁wega.": 3345,
      "▁yakwa,": 3346,
      "kinye": 3347,
      "▁mehia,": 3348,
      "▁ndaaya": 3349,
      "▁Abimeleku": 3350,
      "▁thogo": 3351,
      "tungatagĩra": 3352,
      "▁Laba": 3353,
      "▁kĩhingo-inĩ": 3354,
      "▁itoonyero": 3355,
      "▁mũtararĩko": 3356,
      "tigĩrĩte": 3357,
      "gira": 3358,
      "iko": 3359,
      "▁theru": 3360,
      "randa": 3361,
      "▁mũke": 3362,
      "kĩo,": 3363,
      "tana": 3364,
      "▁ciaguo": 3365,
      "hetwo": 3366,
      "▁kaũũ": 3367,
      "▁taranda": 3368,
      "huma": 3369,
      "▁Hi": 3370,
      "▁egũ": 3371,
      "nĩrio": 3372,
      "▁megũ": 3373,
      "▁kũu,": 3374,
      "▁niĩ.": 3375,
      "▁Ezara": 3376,
      "kĩrĩrĩria": 3377,
      "▁wĩhia": 3378,
      "▁eerĩ,": 3379,
      "▁inene.": 3380,
      "▁ciaku,": 3381,
      "rutĩirwo": 3382,
      "▁mũgate": 3383,
      "▁biũ.": 3384,
      "▁Law": 3385,
      "▁ũteithio": 3386,
      "▁Kaanani": 3387,
      "▁hwaĩ-inĩ": 3388,
      "▁ũremi": 3389,
      "▁Mariamu": 3390,
      "bina": 3391,
      "cĩ": 3392,
      "mwĩrĩ": 3393,
      "▁in": 3394,
      "▁manungi": 3395,
      "▁wakĩo": 3396,
      "▁nĩrũ": 3397,
      "rege": 3398,
      "ma.": 3399,
      "tiri": 3400,
      "tigi": 3401,
      "kirĩrĩria": 3402,
      "▁Amoni": 3403,
      "▁rĩe": 3404,
      "▁gũtu": 3405,
      "▁akĩhooya": 3406,
      "hio": 3407,
      "▁Ngai,\n": 3408,
      "▁makĩrĩ": 3409,
      "▁54": 3410,
      "▁55": 3411,
      "▁mohoro": 3412,
      "▁ũũ:\n": 3413,
      "▁ngĩma": 3414,
      "▁yake,\n": 3415,
      "rire,": 3416,
      "▁Nde": 3417,
      "▁Hero": 3418,
      "▁irio,": 3419,
      "▁(1": 3420,
      "▁(na": 3421,
      "ithania": 3422,
      "rutĩtwo": 3423,
      "▁manyu,": 3424,
      "▁ho,": 3425,
      "-wa-": 3426,
      "▁athĩnjĩri-Ngai,": 3427,
      "▁thaahu.": 3428,
      "▁akĩambata": 3429,
      "geeka": 3430,
      "▁makũmbĩ": 3431,
      "▁mũthuuriwe": 3432,
      "▁Shime": 3433,
      "cinĩra": 3434,
      "▁gĩtugĩ": 3435,
      "tiirĩrĩri": 3436,
      "▁mũgeeto": 3437,
      "▁njino,": 3438,
      "isa": 3439,
      "ywo": 3440,
      "▁ina": 3441,
      "rĩrie": 3442,
      "▁athi": 3443,
      "▁mawĩra": 3444,
      "▁macooke": 3445,
      "riragĩria": 3446,
      "▁nĩn": 3447,
      "▁mũko": 3448,
      "▁iruga": 3449,
      "tigwo": 3450,
      "thira,": 3451,
      "kimu": 3452,
      "▁kĩgera": 3453,
      "▁Ami": 3454,
      "▁Ashe": 3455,
      "mũthĩ": 3456,
      "▁mĩo": 3457,
      "hĩa": 3458,
      "▁rũgongo": 3459,
      "▁nĩatũ": 3460,
      "tuĩro": 3461,
      "▁mekaga": 3462,
      "▁mwanya": 3463,
      "hũtha": 3464,
      "iguĩre": 3465,
      "leki": 3466,
      "cookerera": 3467,
      "▁rĩu.": 3468,
      "▁gwathĩkĩra": 3469,
      "▁ngĩmũ": 3470,
      "▁nĩgeetha\n": 3471,
      "▁ũtaũ": 3472,
      "rutĩte": 3473,
      "▁akwa,": 3474,
      "▁Iburahĩmu,": 3475,
      "ngĩrĩru": 3476,
      "neane": 3477,
      "nyariira": 3478,
      "▁mũtego": 3479,
      "▁thikĩrĩriai": 3480,
      "▁ndaimono": 3481,
      "-Igũrũ": 3482,
      "minjaminjĩ": 3483,
      "ũmba": 3484,
      "▁uuma": 3485,
      "▁cu": 3486,
      "▁ũci": 3487,
      "▁nĩtwa": 3488,
      "hagĩra": 3489,
      "▁kũhu": 3490,
      "▁gũci": 3491,
      "▁gũca": 3492,
      "ge,": 3493,
      "▁ũcio,\n": 3494,
      "▁mĩrũ": 3495,
      "▁mĩguĩ": 3496,
      "▁rũgĩ": 3497,
      "▁mũrũ\n": 3498,
      "▁kwanyu": 3499,
      "▁mbere.": 3500,
      "▁wake\n": 3501,
      "▁De": 3502,
      "▁inyuĩ\n": 3503,
      "ũkaga": 3504,
      "▁Nao\n": 3505,
      "▁ngamĩĩra": 3506,
      "▁Misiri.\n": 3507,
      "▁ithano": 3508,
      "menyagĩrĩre": 3509,
      ":23": 3510,
      "▁Gide": 3511,
      "▁mũrata": 3512,
      "mwana": 3513,
      "iyũrwo": 3514,
      "▁nyina,": 3515,
      "▁thaani": 3516,
      "▁Gadi": 3517,
      "▁Coo": 3518,
      "tarakwa": 3519,
      "▁akĩĩrwo": 3520,
      "haarĩria": 3521,
      "▁ngiuga": 3522,
      "▁gĩkombe": 3523,
      "▁kaũũgũ": 3524,
      "-ũrĩ": 3525,
      "cwo": 3526,
      "itĩrĩria": 3527,
      "▁t": 3528,
      "▁ao,": 3529,
      "▁ũmĩ": 3530,
      "gĩrio": 3531,
      "▁mũmĩ": 3532,
      "▁mũtuĩke": 3533,
      "▁Ngaa": 3534,
      "rehithĩ": 3535,
      "▁ike": 3536,
      "kĩria": 3537,
      "kere": 3538,
      "▁ciu": 3539,
      "▁kũrũ": 3540,
      "▁kũgũrũ": 3541,
      "rusu": 3542,
      "▁nduĩke": 3543,
      "thĩka": 3544,
      "▁akĩe": 3545,
      "ge\n": 3546,
      "▁mĩĩ": 3547,
      "▁mĩhũmũ": 3548,
      "▁Mũnene": 3549,
      "ngana": 3550,
      "▁Twa": 3551,
      "▁tũga": 3552,
      "▁tũrũũĩ": 3553,
      "▁Ro": 3554,
      "▁atĩ,": 3555,
      "▁Ũmũthĩ": 3556,
      "▁Bo": 3557,
      "▁rwaku": 3558,
      "inaga": 3559,
      "lehe": 3560,
      "▁Mwathi": 3561,
      "tiganĩria": 3562,
      "thuurĩte": 3563,
      "▁yaku,\n": 3564,
      "▁ikũmi,": 3565,
      "hũũre": 3566,
      "▁Alawii,": 3567,
      "▁kĩgongona-inĩ": 3568,
      "▁matunda": 3569,
      "▁magũrũ-inĩ": 3570,
      "zu,": 3571,
      "▁mũthiro": 3572,
      "▁Nuhu": 3573,
      "gaacĩra": 3574,
      "▁Njiaro": 3575,
      "hũra": 3576,
      "i.": 3577,
      "▁u": 3578,
      "▁ye": 3579,
      "▁nũ": 3580,
      "thĩrĩ": 3581,
      "▁ũtũmaga": 3582,
      "gana": 3583,
      "maa": 3584,
      "roni,": 3585,
      "▁yacio": 3586,
      "▁kĩĩranĩro": 3587,
      "▁andũ.\n": 3588,
      "▁Jehoa": 3589,
      "nyoo": 3590,
      "▁Namo": 3591,
      "▁mĩtarakwa": 3592,
      "▁karumbeta": 3593,
      "njwo": 3594,
      "▁Mũngĩ": 3595,
      "mu.": 3596,
      "▁etha": 3597,
      "▁Mariko": 3598,
      "▁aathĩte": 3599,
      "▁aatuĩkire": 3600,
      "▁Shu": 3601,
      "gwatĩ": 3602,
      "▁Ũngĩ": 3603,
      "▁Ũkĩra": 3604,
      "kia,": 3605,
      "▁arĩ\n": 3606,
      "thũka": 3607,
      "thu-": 3608,
      "▁wothe.\n": 3609,
      "▁ciothe\n": 3610,
      "kĩte.": 3611,
      "▁mwĩtĩĩo": 3612,
      "▁kĩrĩa\n": 3613,
      "ciari": 3614,
      "▁yaku.": 3615,
      "ngiĩ": 3616,
      "thondekire": 3617,
      "▁kĩĩruru": 3618,
      "▁Jakubu,": 3619,
      "▁Ĩĩ": 3620,
      "▁manyu.": 3621,
      "▁mũthĩnjĩri-Ngai,": 3622,
      "▁makoiga": 3623,
      "▁ĩtatũ,": 3624,
      "▁ũmũthĩ,": 3625,
      "goocaga": 3626,
      "menyerera": 3627,
      "▁Bethilehe": 3628,
      "ithũra": 3629,
      "▁Eleazaru": 3630,
      "▁Rehoboamu": 3631,
      "▁Moridekai": 3632,
      "▁Nafita": 3633,
      "▁anini": 3634,
      "▁ũrimũ": 3635,
      "▁ũhoota": 3636,
      "ndire": 3637,
      "inũka": 3638,
      "▁nĩwĩ": 3639,
      "▁mũira": 3640,
      "▁icooki": 3641,
      "kete": 3642,
      "▁kĩge": 3643,
      "▁kĩene": 3644,
      "▁rĩo": 3645,
      "▁rĩkĩ": 3646,
      "▁gũcinwo": 3647,
      "▁akĩigua": 3648,
      "▁rĩanyu": 3649,
      "▁Kwĩ": 3650,
      "▁Kana": 3651,
      "▁makĩria,": 3652,
      "▁Ririkana": 3653,
      "▁ngwĩ": 3654,
      "▁magĩci": 3655,
      "▁nao.": 3656,
      "▁hema-inĩ": 3657,
      "▁mũrĩithi": 3658,
      "▁icio,": 3659,
      "▁yothe.\n": 3660,
      "▁ngũmwĩra": 3661,
      "▁thũmbĩ": 3662,
      "▁Ĩra": 3663,
      "▁maguta,": 3664,
      "▁moime": 3665,
      "▁Zebu": 3666,
      "▁thaahu,": 3667,
      "▁Zado": 3668,
      "▁Rake": 3669,
      "▁Jorodani,": 3670,
      "▁Ndũrĩrĩ": 3671,
      "▁mbĩrĩra-inĩ": 3672,
      "▁kũriku": 3673,
      "▁Abine": 3674,
      "▁kĩoneki": 3675,
      "▁Akorinitho": 3676,
      "▁njeera": 3677,
      ":N": 3678,
      "bia": 3679,
      "▁atheru": 3680,
      "▁maru": 3681,
      "ringo": 3682,
      "▁kwenda": 3683,
      "▁mũhia": 3684,
      "▁mũtirĩ": 3685,
      "▁mũthemba": 3686,
      "tagĩra": 3687,
      "▁cione": 3688,
      "▁ooragwo": 3689,
      "tue": 3690,
      "mbĩrĩ": 3691,
      "thĩtio": 3692,
      "▁gũthũ": 3693,
      "▁akĩrehe": 3694,
      "gaikara": 3695,
      "▁gĩgũtũma": 3696,
      "▁Mũthĩnjĩri-Ngai": 3697,
      "tĩka": 3698,
      "▁taguo": 3699,
      "▁agĩaka": 3700,
      "▁agĩthamaka": 3701,
      "ingĩha": 3702,
      "▁rũmwe": 3703,
      "▁tha.\n": 3704,
      "▁marĩ\n": 3705,
      "▁arĩithi": 3706,
      "▁Jesũ.": 3707,
      "▁wakwa;\n": 3708,
      "▁irĩhi": 3709,
      "▁wanyu.\n": 3710,
      "▁ithe,": 3711,
      "thĩnjĩri-\n": 3712,
      "▁make.": 3713,
      "▁yakwa,\n": 3714,
      "▁maku,": 3715,
      "▁mao.\n": 3716,
      "▁mwaki.": 3717,
      "▁rĩake.": 3718,
      "▁nĩmũga": 3719,
      "▁Fili": 3720,
      "▁werũ-inĩ,": 3721,
      "▁mũcibi": 3722,
      "▁Nĩngatũma": 3723,
      "▁Shaita": 3724,
      "▁Joashu": 3725,
      "hurũka": 3726,
      "▁kũrũmĩrĩrwo": 3727,
      "tambũrũkia": 3728,
      "▁ũiguano": 3729,
      "▁Thĩinĩ": 3730,
      "▁ũgwati": 3731,
      ").": 3732,
      "rĩha": 3733,
      "▁ahaana": 3734,
      "▁mũtũ": 3735,
      "▁Ny": 3736,
      "nanagia": 3737,
      "hoka": 3738,
      "▁kũna": 3739,
      "▁atwa": 3740,
      "▁kĩmenyithia": 3741,
      "▁Amo": 3742,
      "▁Athĩnjĩri-Ngai": 3743,
      "▁Atiirĩrĩri": 3744,
      "▁gĩka": 3745,
      "▁mĩigua": 3746,
      "njooke": 3747,
      "hũgũ": 3748,
      "▁thĩinĩ,": 3749,
      "▁hĩndĩ\n": 3750,
      "▁gwatha": 3751,
      "▁Ningĩ\n": 3752,
      "goocwo": 3753,
      "▁witũ,\n": 3754,
      "▁ĩmwe,": 3755,
      "▁nawe,": 3756,
      "▁Harũni,": 3757,
      "▁nĩkĩa": 3758,
      "▁Sime": 3759,
      "▁ĩnana": 3760,
      "▁ngumo": 3761,
      "▁Jehoiada": 3762,
      "▁mũcaara": 3763,
      "-Mũno": 3764,
      "barĩ": 3765,
      "fi": 3766,
      "ohe": 3767,
      "tino": 3768,
      "ũre": 3769,
      "thwo": 3770,
      "ndĩrĩ": 3771,
      "▁kwĩra": 3772,
      "▁nĩci": 3773,
      "▁mũtarĩ": 3774,
      "▁igua": 3775,
      "tha,": 3776,
      "▁kũniina": 3777,
      "kunya": 3778,
      "▁kĩrathimo": 3779,
      "▁gũkena": 3780,
      "▁Nathani": 3781,
      "▁agĩtu": 3782,
      "▁thĩ\n": 3783,
      "▁Ishuma": 3784,
      "▁nĩako": 3785,
      "nĩirio": 3786,
      "▁gĩa\n": 3787,
      "▁magĩtoonya": 3788,
      "dabu": 3789,
      "▁kwao": 3790,
      "▁Ela": 3791,
      "▁nĩmara": 3792,
      "▁mwena\n": 3793,
      "ngire": 3794,
      "▁mĩrongo\n": 3795,
      "kinyĩte": 3796,
      "haande": 3797,
      "▁makamũ": 3798,
      "▁cianyu,": 3799,
      "▁ũmũthĩ.": 3800,
      "▁nguru": 3801,
      "▁Efiraimu,": 3802,
      "hinyu": 3803,
      "▁kĩhuhũkanio": 3804,
      "▁Kũrathimwo-rĩ,": 3805,
      "▁Herode": 3806,
      "▁mĩoyo": 3807,
      ":nĩ": 3808,
      "si,": 3809,
      "▁ũcooke": 3810,
      "ga.": 3811,
      "ra,\n": 3812,
      "▁nĩnjũũĩ": 3813,
      "▁mũromo": 3814,
      "▁igooka": 3815,
      "▁kũgĩe": 3816,
      "▁As": 3817,
      "▁Angĩ": 3818,
      "▁Anene": 3819,
      "hemia": 3820,
      "▁gĩkaa": 3821,
      "▁gĩtheru": 3822,
      "▁Narĩo": 3823,
      "▁mĩeri": 3824,
      "▁mĩnyoro": 3825,
      "▁Mũhonokia": 3826,
      "▁agĩthikwo": 3827,
      "cookio": 3828,
      "▁we.": 3829,
      "▁tũnyũmba": 3830,
      "▁maama": 3831,
      "▁Rwĩmbo": 3832,
      "▁aamwa": 3833,
      "▁Goo": 3834,
      "bango": 3835,
      "▁magĩtuĩka": 3836,
      "▁gake": 3837,
      "▁56": 3838,
      "▁mothiũ": 3839,
      "cooka\n": 3840,
      "▁akĩmũhe": 3841,
      "▁ndungata\n": 3842,
      "▁Misiri,\n": 3843,
      "▁ithaka": 3844,
      "▁akuo": 3845,
      "▁maku.\n": 3846,
      "▁Ĩĩ,": 3847,
      "▁Zeru": 3848,
      "herithio": 3849,
      "▁Nehemia": 3850,
      "▁Aamoni": 3851,
      "▁ageni": 3852,
      "▁kũimbia": 3853,
      "▁mũgeni": 3854,
      "▁mĩario": 3855,
      "▁wendani": 3856,
      "▁aathanĩte": 3857,
      "atũ": 3858,
      "rĩe": 3859,
      "▁agũ": 3860,
      "▁akiu": 3861,
      "▁ũrũ": 3862,
      "▁ũkĩrĩ": 3863,
      "▁ũhurũko": 3864,
      "▁matũũre": 3865,
      "▁Nge": 3866,
      "▁rĩũmba": 3867,
      "mbuu": 3868,
      "▁Ikara": 3869,
      "▁Ibuku": 3870,
      "▁agĩtũũra": 3871,
      "▁ehia": 3872,
      "▁ebo": 3873,
      "▁57": 3874,
      "▁acio,": 3875,
      "tũũria": 3876,
      "tũũrire": 3877,
      "▁Samu": 3878,
      "▁warĩ\n": 3879,
      "▁ngano,": 3880,
      "▁maaĩ.": 3881,
      "▁Hekarũ": 3882,
      "▁ũthamaki-inĩ": 3883,
      "thiomi": 3884,
      "▁njora.": 3885,
      "thaahia": 3886,
      "▁itimũ": 3887,
      "▁maiguire": 3888,
      "itĩrĩrie": 3889,
      "▁Turo": 3890,
      "guũrĩrio": 3891,
      "▁ngurunga": 3892,
      "beli": 3893,
      "i,\n": 3894,
      "je": 3895,
      "witũ": 3896,
      "▁arute": 3897,
      "inũ": 3898,
      "▁mũhinyu": 3899,
      "▁ige": 3900,
      "▁ihooya": 3901,
      "▁ihĩtia": 3902,
      "kĩtio": 3903,
      "▁oke": 3904,
      "▁MA": 3905,
      "▁kũ?": 3906,
      "tiira": 3907,
      "▁akĩhe": 3908,
      "gaika": 3909,
      "hithe": 3910,
      "hĩtire": 3911,
      "mu,\n": 3912,
      "▁wendi": 3913,
      "▁tũma": 3914,
      "two\n": 3915,
      "tuĩria": 3916,
      "▁Gwa": 3917,
      "▁ũhoro,": 3918,
      "canjamũ": 3919,
      "▁60": 3920,
      "▁Mwana": 3921,
      "tiganĩirie": 3922,
      "▁ngĩĩ": 3923,
      "▁Zo": 3924,
      "▁Kaisa": 3925,
      "▁watho,": 3926,
      "kinya,": 3927,
      "▁aku,": 3928,
      "▁maku.": 3929,
      "▁Gili": 3930,
      "▁nĩngatũma": 3931,
      "▁akĩmahe": 3932,
      "▁Fara": 3933,
      "▁ho.": 3934,
      "▁Ndaa": 3935,
      "▁biũ,": 3936,
      "▁makĩambata": 3937,
      "▁haamũre": 3938,
      "▁Njĩra": 3939,
      "▁koine": 3940,
      "rooka": 3941,
      "▁Ciana": 3942,
      "▁Mbere": 3943,
      "▁etheire": 3944,
      "-ũrĩ-Igũrũ": 3945,
      "▁Zebulu": 3946,
      "▁Gooca": 3947,
      "▁Samus": 3948,
      "noo": 3949,
      "zire": 3950,
      "▁gwe": 3951,
      "▁ai": 3952,
      "▁aira": 3953,
      "▁magĩrĩire": 3954,
      "rirũ": 3955,
      "▁ire": 3956,
      "▁itina": 3957,
      "nanie": 3958,
      "▁kũũragwo": 3959,
      "▁gũtiga": 3960,
      "▁akĩũraga": 3961,
      "▁Jehova;\n": 3962,
      "▁kanyũmba": 3963,
      "hunjĩ": 3964,
      "humbe": 3965,
      "▁njũũĩ": 3966,
      "girĩrĩria": 3967,
      "riei": 3968,
      "▁makĩrũgama": 3969,
      "▁Maitho": 3970,
      "mothu": 3971,
      "▁kĩanyu": 3972,
      "gwatĩra": 3973,
      "▁Gwĩ": 3974,
      "nia\n": 3975,
      "▁nyũmũ": 3976,
      "▁nĩmako": 3977,
      "▁nĩmamũ": 3978,
      "▁nyũmba,": 3979,
      "▁Jesii": 3980,
      "cookaga": 3981,
      "cookanĩrĩria": 3982,
      "▁ũũĩ": 3983,
      "▁Jude": 3984,
      "tooria": 3985,
      "▁mothe\n": 3986,
      "▁nja,": 3987,
      "honoka": 3988,
      "▁ngara": 3989,
      "▁tiwe": 3990,
      "▁nĩũkũ": 3991,
      "▁moonire": 3992,
      "▁makwa.\n": 3993,
      "rutĩre": 3994,
      "▁ũgaakorwo": 3995,
      "toonyaga": 3996,
      "▁nawe.": 3997,
      "▁magaakorwo": 3998,
      "▁rũciũ": 3999,
      "▁Matukũ-inĩ": 4000,
      "▁yanyu,": 4001,
      "▁nĩĩga": 4002,
      "nginyĩrĩ": 4003,
      "▁handũ-harĩa-haamũre": 4004,
      "▁Hihi": 4005,
      "▁twĩrĩ": 4006,
      "ja,": 4007,
      "▁akũ": 4008,
      "▁akũrũ": 4009,
      "▁mathiiaga": 4010,
      "raaya": 4011,
      "ndia": 4012,
      "▁nĩwo": 4013,
      "▁nĩnge": 4014,
      "re,\n": 4015,
      "▁ithu": 4016,
      "▁ikaa": 4017,
      "tahwo": 4018,
      "na,\n": 4019,
      "thatũ": 4020,
      "▁kũũria": 4021,
      "rua": 4022,
      "kirĩte": 4023,
      "▁rĩrĩ,\n": 4024,
      "▁ĩna,": 4025,
      "▁Nĩwa": 4026,
      "▁Nĩaga": 4027,
      "▁Mũis": 4028,
      "▁Ngai-rĩ,": 4029,
      "▁tũtirĩ": 4030,
      "▁tũrumbeta": 4031,
      "▁Rii": 4032,
      "rutagwo": 4033,
      "rutagĩra": 4034,
      "▁gĩathĩ": 4035,
      "▁mũrũga": 4036,
      "▁mũthamaki.\n": 4037,
      "▁niĩ.\n": 4038,
      "▁nĩmare": 4039,
      "ikarĩte": 4040,
      "▁moke": 4041,
      "▁toro": 4042,
      "▁Josia": 4043,
      "▁mũtugo": 4044,
      "▁indo\n": 4045,
      "▁mothe.\n": 4046,
      "▁kũrĩa\n": 4047,
      "nyiiti": 4048,
      "▁macio.": 4049,
      "▁Ndĩra": 4050,
      "▁Beni": 4051,
      "kanĩire": 4052,
      "▁mwanake": 4053,
      "▁Shema": 4054,
      "▁thoni": 4055,
      "▁magaatuĩka": 4056,
      "▁ũtukũ,": 4057,
      "heane": 4058,
      "▁njohe": 4059,
      "▁Betheli": 4060,
      "▁Dameski": 4061,
      "▁thogora": 4062,
      "▁inanda": 4063,
      "▁mwo": 4064,
      "garũra": 4065,
      "▁mũha": 4066,
      "▁mũtho": 4067,
      "▁mũruru": 4068,
      "▁imũ": 4069,
      "nage": 4070,
      "ha,": 4071,
      "▁rĩĩ": 4072,
      "mũũria": 4073,
      "▁gũcookia": 4074,
      "tĩkĩre": 4075,
      "hĩro-inĩ": 4076,
      "▁Thũ": 4077,
      "mbaga": 4078,
      "▁rũthiomi": 4079,
      "▁Matũũra": 4080,
      "▁mwega,": 4081,
      "▁magĩikara": 4082,
      "▁mũrũguo": 4083,
      "inamĩrĩra": 4084,
      "▁Wega": 4085,
      "▁moigaga": 4086,
      "iguuo": 4087,
      "▁aarĩ\n": 4088,
      "▁angĩĩ": 4089,
      "▁wĩkĩte": 4090,
      "▁mũthenya,": 4091,
      "▁irĩra": 4092,
      "kaga,": 4093,
      "nyiihia": 4094,
      "▁Kari": 4095,
      "bedi": 4096,
      "▁wao,\n": 4097,
      "heene": 4098,
      "▁ngũĩ": 4099,
      "▁hau,": 4100,
      "▁(2": 4101,
      "▁mao,\n": 4102,
      "nĩrĩre": 4103,
      "▁makwa,": 4104,
      "▁makwa,\n": 4105,
      "▁ciira,": 4106,
      "▁cianyu.": 4107,
      "▁nĩakamũ": 4108,
      "▁ciĩga": 4109,
      "▁Ahibirania": 4110,
      "▁Rũci": 4111,
      "riganĩtie": 4112,
      "▁irathĩro,": 4113,
      "▁ũiru": 4114,
      "▁Asafu": 4115,
      "toonyire": 4116,
      "▁Mizi": 4117,
      "▁Timothe": 4118,
      "▁Zadoku": 4119,
      "▁Rakeli": 4120,
      "▁Goocai": 4121,
      "▁aci": 4122,
      "▁magooka": 4123,
      "ga.\n": 4124,
      "range": 4125,
      "▁mũgũ": 4126,
      "▁mũmenye": 4127,
      "kagwo": 4128,
      "▁Nyamũ": 4129,
      "▁ite": 4130,
      "ma\n": 4131,
      "tharia": 4132,
      "▁kũhoo": 4133,
      "rore": 4134,
      "▁ciathĩ": 4135,
      "▁kĩna": 4136,
      "▁gũtiarĩ": 4137,
      "▁haraaya": 4138,
      "getha": 4139,
      "▁Inene": 4140,
      "▁Kuo": 4141,
      "ndĩkwo": 4142,
      "rie.\n": 4143,
      "▁tũmĩ": 4144,
      "▁eba": 4145,
      "▁Make": 4146,
      "▁Sina": 4147,
      "▁ũguo\n": 4148,
      "▁ũũru,": 4149,
      "tigane": 4150,
      "rĩrĩra": 4151,
      "▁ũmwe,\n": 4152,
      "▁angĩ,": 4153,
      "▁gwĩti": 4154,
      "▁wanyu\n": 4155,
      "▁nĩgũkorwo\n": 4156,
      "▁warĩo": 4157,
      "rĩte,": 4158,
      "▁Kale": 4159,
      "mbĩte": 4160,
      "▁riitho": 4161,
      "nĩrĩire": 4162,
      "nĩrĩra,": 4163,
      "▁Babuloni.": 4164,
      "▁nĩmakamenya": 4165,
      "heagwo": 4166,
      "▁makiugaga": 4167,
      "gwetaga": 4168,
      "tongoragia": 4169,
      "▁gĩcango,": 4170,
      "batithio": 4171,
      "▁kũrũmĩrĩra": 4172,
      "cookererwo": 4173,
      "▁mũhiha": 4174,
      "▁gũtũũgĩru": 4175,
      "guuc": 4176,
      "cũthĩrĩria": 4177,
      "hehenja": 4178,
      "▁cairi": 4179,
      "▁Labani": 4180,
      "▁Nyina": 4181,
      "ende": 4182,
      "ĩire": 4183,
      "garũ": 4184,
      "▁wagũ": 4185,
      "▁nĩĩka": 4186,
      "▁mũtũũraga": 4187,
      "hokaga": 4188,
      "hany": 4189,
      "▁kũho": 4190,
      "▁kũhe": 4191,
      "▁kũme": 4192,
      "▁kũriũ": 4193,
      "▁kũhonokia": 4194,
      "ruru,": 4195,
      "▁andũ,\n": 4196,
      "rwo.\n": 4197,
      "▁akĩrega": 4198,
      "▁Naarĩ": 4199,
      "▁kaingĩ": 4200,
      "▁Kiria": 4201,
      "▁agĩikũrũka": 4202,
      "▁maathiiaga": 4203,
      "▁Ruthu": 4204,
      "erera": 4205,
      "▁rwarĩ": 4206,
      "▁magĩtũma": 4207,
      "▁gaku": 4208,
      "▁othe.\n": 4209,
      "tigara": 4210,
      "▁mwĩhia": 4211,
      "ngerera": 4212,
      "▁macio\n": 4213,
      "▁wĩra-inĩ": 4214,
      "▁ciake.\n": 4215,
      "▁ithathatũ": 4216,
      "▁Bena": 4217,
      "▁matariĩ": 4218,
      "rekeire": 4219,
      "▁(N": 4220,
      "▁riita": 4221,
      "▁ithuĩ,": 4222,
      "▁igĩĩna": 4223,
      "▁mĩgũnda-inĩ": 4224,
      "heanaga": 4225,
      "▁Benjamini,": 4226,
      "▁ndogo": 4227,
      "neanwo": 4228,
      "▁gĩthaku": 4229,
      "▁Thonde": 4230,
      "▁mĩrũũthi": 4231,
      "▁Gideoni": 4232,
      "▁Abineri": 4233,
      "▁Shaitani": 4234,
      "cee": 4235,
      "i.\n": 4236,
      "▁gi": 4237,
      "▁mu": 4238,
      "▁maci": 4239,
      "▁marigithathi": 4240,
      "gate": 4241,
      "▁nĩrĩa": 4242,
      "▁mũgi": 4243,
      "▁Ng": 4244,
      "thanagia": 4245,
      "▁ciimba": 4246,
      "rona": 4247,
      "kũra": 4248,
      "kũmũ": 4249,
      "▁gĩtũmaga": 4250,
      "▁Nĩe": 4251,
      "hikia": 4252,
      "▁tawa": 4253,
      "▁agĩkinya": 4254,
      "giria": 4255,
      "▁tũta": 4256,
      "▁tũhiga": 4257,
      "▁makĩoya": 4258,
      "▁Isaka": 4259,
      "▁Ũtukũ": 4260,
      "▁rwaro": 4261,
      "▁magĩcookia": 4262,
      "hũũraga": 4263,
      "▁nake.\n": 4264,
      "▁58": 4265,
      "▁ũmwe\n": 4266,
      "▁acio\n": 4267,
      "▁Mwathani.": 4268,
      "▁tene;\n": 4269,
      "nyiite": 4270,
      "rire\n": 4271,
      "▁Kũguũrĩrio": 4272,
      "▁maaĩ-inĩ": 4273,
      "▁nĩũgũ": 4274,
      "shu,": 4275,
      "▁kiu": 4276,
      "▁makwa.": 4277,
      "▁nĩakama": 4278,
      "▁ĩĩrĩ.": 4279,
      "ĩkaine": 4280,
      "▁mwĩrĩ,": 4281,
      "▁moigĩte": 4282,
      "▁magego": 4283,
      "▁gĩake,": 4284,
      "▁ũmũthĩ.\n": 4285,
      "▁Firaũni,": 4286,
      "▁Maaĩ": 4287,
      "▁Werũ": 4288,
      "▁Baba,": 4289,
      "▁ngaatho,": 4290,
      "tĩkĩria": 4291,
      "▁gũtika": 4292,
      "▁mũrori": 4293,
      "▁Hamani": 4294,
      "erekeire": 4295,
      "theeca": 4296,
      ".5)": 4297,
      ":ma": 4298,
      "ali": 4299,
      "rĩka": 4300,
      "▁ũgu": 4301,
      "riya": 4302,
      "riba": 4303,
      "▁kũhũũra": 4304,
      "guto": 4305,
      "roto": 4306,
      "thita": 4307,
      "kuĩra": 4308,
      "▁Aki": 4309,
      "▁Age": 4310,
      "thĩnja": 4311,
      "▁gũkenia": 4312,
      "▁Jehova;": 4313,
      "▁gĩĩ": 4314,
      "▁Nawe": 4315,
      "▁Ihiga": 4316,
      "▁mĩrigo": 4317,
      "hikie": 4318,
      "njũ": 4319,
      "hĩti": 4320,
      "mu\n": 4321,
      "▁agĩkĩ": 4322,
      "▁agĩkua": 4323,
      "▁we\n": 4324,
      "▁makĩge": 4325,
      "▁makĩũria": 4326,
      "▁maaragia": 4327,
      "▁Maya": 4328,
      "▁aakinyire": 4329,
      "▁Ũrĩ": 4330,
      "▁Biri": 4331,
      "▁magĩe": 4332,
      "▁maiyũ": 4333,
      "▁59": 4334,
      "camba": 4335,
      "▁mora": 4336,
      "▁nduma-inĩ": 4337,
      "irie,": 4338,
      "▁ciothe,\n": 4339,
      "▁muoyo,\n": 4340,
      "kĩte.\n": 4341,
      "irwo,": 4342,
      "▁maaĩ.\n": 4343,
      ":26": 4344,
      "▁matangĩ": 4345,
      "zeri": 4346,
      "hũũrane": 4347,
      "▁akĩaria": 4348,
      "▁thayũ.": 4349,
      "▁akĩĩgu": 4350,
      "heanĩte": 4351,
      "▁rĩakwa,": 4352,
      "▁kuonania": 4353,
      "▁maroho": 4354,
      "▁Kĩrĩkanĩro": 4355,
      "rumithia": 4356,
      "▁kũrũmĩrĩrwo,": 4357,
      "hingũra": 4358,
      "▁Amazia": 4359,
      "▁Midia": 4360,
      "-Hatheru": 4361,
      "▁atũme": 4362,
      "▁ngwata": 4363,
      "▁nyuguto": 4364,
      "▁Rubeni": 4365,
      "▁Barana": 4366,
      "▁gĩkũnjo": 4367,
      "▁mũhianĩre": 4368,
      "▁Filip": 4369,
      "▁Ishumaeli": 4370,
      "▁mĩnyororo": 4371,
      "▁kĩnanda": 4372,
      "kwe": 4373,
      "▁ũnjĩ": 4374,
      "▁ma.\n": 4375,
      "▁mangũ": 4376,
      "▁wama": 4377,
      "▁mũthĩĩni": 4378,
      "▁Nja": 4379,
      "ĩrĩte": 4380,
      "▁Mera": 4381,
      "▁kũra": 4382,
      "thirie": 4383,
      "▁Ap": 4384,
      "▁Aka": 4385,
      "gothe": 4386,
      "tuu": 4387,
      "▁gũkaa": 4388,
      "▁gũtua": 4389,
      "▁Itha": 4390,
      "▁ũndũ-rĩ,": 4391,
      "▁Mũhi": 4392,
      "▁Mũtiga": 4393,
      "hĩtĩte": 4394,
      "▁agĩtũ": 4395,
      "▁agĩkoma": 4396,
      "▁ehokeku": 4397,
      "▁makĩmĩ": 4398,
      "▁makĩruta": 4399,
      "rio.": 4400,
      "▁Ũthamaki": 4401,
      "▁iria,": 4402,
      "▁gakara": 4403,
      "hooreria": 4404,
      "▁62": 4405,
      "mĩrĩria": 4406,
      "▁mũtune": 4407,
      "▁mothe.": 4408,
      "hingio": 4409,
      ":25": 4410,
      ":27": 4411,
      "▁kwĩyende": 4412,
      "▁ũthamaki.": 4413,
      "zaru,": 4414,
      "▁ũtathiraga": 4415,
      "▁mbaara-inĩ": 4416,
      "▁ruothe": 4417,
      "▁Moima": 4418,
      "▁njora,\n": 4419,
      "▁kĩhooto,\n": 4420,
      "▁uuge": 4421,
      "▁ĩtatũ.": 4422,
      "▁Ũrĩa-ũrĩ-Igũrũ": 4423,
      "thaahie": 4424,
      "▁ngerekano": 4425,
      "▁Ũũgĩ": 4426,
      "▁ngigĩ": 4427,
      "njoria": 4428,
      "▁Korwo": 4429,
      "▁Ahazu": 4430,
      "▁nyendete": 4431,
      "▁aikarĩte": 4432,
      "▁ndigithũ": 4433,
      "▁agĩathana": 4434,
      "hunjagia": 4435,
      "garũrũka": 4436,
      "rũmbũiya": 4437,
      "▁tĩĩri": 4438,
      "▁Kiugo": 4439,
      "▁Zekaria": 4440,
      "▁gĩcigo": 4441,
      "▁Giliga": 4442,
      "▁gakarakũ": 4443,
      "ithani": 4444,
      "ĩrire": 4445,
      "▁co": 4446,
      "▁abata": 4447,
      "▁nako": 4448,
      "▁ũnde": 4449,
      "▁ũkiuga": 4450,
      "▁ma.": 4451,
      "▁marũma": 4452,
      "▁watũ": 4453,
      "▁nĩũra": 4454,
      "▁nĩũũĩ": 4455,
      "▁mũgĩe": 4456,
      "▁mũrigo": 4457,
      "nangwo": 4458,
      "thambi": 4459,
      "▁Aya": 4460,
      "tuire": 4461,
      "koona": 4462,
      "gev": 4463,
      "▁mĩha": 4464,
      "▁mĩhaka": 4465,
      "▁mĩciĩ": 4466,
      "▁rĩaku,": 4467,
      "▁Ngai;": 4468,
      "▁njoo": 4469,
      "▁njũru": 4470,
      "▁agĩtua": 4471,
      "gitĩra": 4472,
      "▁rũkĩ": 4473,
      "▁tũra": 4474,
      "▁makĩũra": 4475,
      "▁makĩaga": 4476,
      "▁maatha": 4477,
      "nyue": 4478,
      "nĩri": 4479,
      "▁mũrũa": 4480,
      "aragĩria": 4481,
      "▁kwara": 4482,
      "mio": 4483,
      "ananga": 4484,
      "▁thĩinĩ.": 4485,
      "▁rĩu\n": 4486,
      "▁harĩ\n": 4487,
      "kire,": 4488,
      "▁Judasi": 4489,
      "▁Musa.\n": 4490,
      "▁twana": 4491,
      "▁ĩtano,": 4492,
      "▁yaku.\n": 4493,
      "▁Misiri\n": 4494,
      "▁matandatũ": 4495,
      "▁irio.": 4496,
      "ngiuga": 4497,
      "rehera": 4498,
      "cũũra": 4499,
      "▁Gĩkuũ": 4500,
      "sea": 4501,
      "▁Jusufu,": 4502,
      "▁mũgũnda-inĩ": 4503,
      "▁nyoka": 4504,
      "▁Ti-itherũ,": 4505,
      "ciaraga": 4506,
      "ciarĩtwo": 4507,
      "▁andũ-a-nja,": 4508,
      "▁rwe": 4509,
      "▁Balaki": 4510,
      "▁Handũ-harĩa": 4511,
      "▁ihooru": 4512,
      "▁Mwaka-inĩ": 4513,
      "▁Baranaba": 4514,
      "omi": 4515,
      "ve": 4516,
      "▁akarũ": 4517,
      "▁athĩĩ": 4518,
      "▁makara": 4519,
      "▁mũcooke": 4520,
      "▁mũthabibũ": 4521,
      "ndũmire": 4522,
      "re.\n": 4523,
      "▁ime": 4524,
      "theria": 4525,
      "▁Muo": 4526,
      "ne.": 4527,
      "▁Jezire": 4528,
      "thiĩra": 4529,
      "kuhĩrĩirie": 4530,
      "kome": 4531,
      "herera": 4532,
      "▁gũthondeka": 4533,
      "▁gũciarwo": 4534,
      "nyona": 4535,
      "▁hatirĩ": 4536,
      "▁Itu": 4537,
      "▁Nĩnjũũĩ": 4538,
      "▁no-o": 4539,
      "cookie": 4540,
      "▁tũũ": 4541,
      "▁aamwĩ": 4542,
      "two,": 4543,
      "▁kĩara": 4544,
      "▁kĩamũre": 4545,
      "▁mwandĩki": 4546,
      "▁Ũira": 4547,
      "▁Ũrathi": 4548,
      "njĩka": 4549,
      "▁arĩĩ": 4550,
      "▁maarĩkia": 4551,
      "ũũkĩrĩra": 4552,
      "▁Juda.\n": 4553,
      "▁makerubi": 4554,
      "kĩoya": 4555,
      "▁nĩũrĩ": 4556,
      "▁Heshi": 4557,
      ":28": 4558,
      "kinyu": 4559,
      "kanĩte": 4560,
      "▁ĩrĩkũ": 4561,
      "▁mwaki.\n": 4562,
      "▁Mwena": 4563,
      "▁Tigai": 4564,
      "ikarage": 4565,
      "▁ũũru.\n": 4566,
      "▁Gatũrũme": 4567,
      "▁Sodomu": 4568,
      "▁Ndagũthaitha": 4569,
      "▁Mehia": 4570,
      "▁rĩmwe,": 4571,
      "▁Negev": 4572,
      "▁Atĩrĩrĩ": 4573,
      "▁thayũ,": 4574,
      "▁nyingĩ,": 4575,
      "▁nĩgũga": 4576,
      "▁Wendo": 4577,
      "kenagĩra": 4578,
      "▁gathirange": 4579,
      "▁thuriya": 4580,
      "▁gathigathini,": 4581,
      "▁Magĩcooka": 4582,
      "hĩtũkĩra": 4583,
      "▁bururu,": 4584,
      "hũthĩra": 4585,
      "▁mũmaraya": 4586,
      "▁Sei": 4587,
      "▁ngoothi": 4588,
      "▁Aroma": 4589,
      "rehithĩria": 4590,
      "▁Mũisiraeli": 4591,
      "▁aũ": 4592,
      "▁agooka": 4593,
      "▁aruti": 4594,
      "▁ũreke": 4595,
      "▁mũtũmwo": 4596,
      "▁mũtino": 4597,
      "▁Nili": 4598,
      "▁ikara": 4599,
      "▁ithima": 4600,
      "manga": 4601,
      "nagwo": 4602,
      "nagie": 4603,
      "te,\n": 4604,
      "niinĩ": 4605,
      "thitangĩ": 4606,
      "▁ndiri": 4607,
      "kuuĩte": 4608,
      "kirwo": 4609,
      "▁kĩ?": 4610,
      "mbirwo": 4611,
      "▁gĩtina": 4612,
      "ge.": 4613,
      "gene": 4614,
      "meire": 4615,
      "▁kaarĩ": 4616,
      "▁Mũyahudi": 4617,
      "▁taama": 4618,
      "▁Kora": 4619,
      "▁Kena": 4620,
      "▁nji": 4621,
      "twarĩra": 4622,
      "gĩrĩru": 4623,
      "▁ũrĩĩ": 4624,
      "da,": 4625,
      "▁gaka": 4626,
      "nia.": 4627,
      "▁ndũũraga": 4628,
      "▁ũguo.\n": 4629,
      "▁igũrũ\n": 4630,
      "▁hamwe,": 4631,
      "▁ngoma": 4632,
      "thũkia": 4633,
      "kĩrĩtwo": 4634,
      "▁ũũ,": 4635,
      "▁ũmwe.\n": 4636,
      "▁Haza": 4637,
      "▁itũũra\n": 4638,
      "▁ngĩigua": 4639,
      "▁Mũndũ\n": 4640,
      "▁ciao,\n": 4641,
      "▁witũ.\n": 4642,
      "▁mũnene.": 4643,
      "▁wega.\n": 4644,
      "▁thiomi": 4645,
      "▁guoko,": 4646,
      "haane": 4647,
      "▁rĩngĩ,\n": 4648,
      "00.\n": 4649,
      "▁ndũrĩrĩ-inĩ": 4650,
      "cuka": 4651,
      "domu,": 4652,
      "nguma": 4653,
      "rutĩire": 4654,
      "▁oime": 4655,
      "▁ũũru,\n": 4656,
      "▁ũgĩe": 4657,
      "▁ciakwa,": 4658,
      "▁ao.": 4659,
      "▁Moabi,": 4660,
      "▁Ndũmĩrĩri": 4661,
      "▁kambĩ-inĩ": 4662,
      "▁Ahazia": 4663,
      "tĩkĩrie": 4664,
      "nyuuaga": 4665,
      "mumunya": 4666,
      "▁Peris": 4667,
      "▁gũkĩgĩa": 4668,
      "kenera": 4669,
      "▁yumĩte": 4670,
      "▁ũcuuke": 4671,
      "jebu": 4672,
      "▁mũrurumo": 4673,
      "▁Kalebu": 4674,
      "▁Heshibo": 4675,
      "-rĩ": 4676,
      "-ngai": 4677,
      "a,\n": 4678,
      "amũ": 4679,
      "muu": 4680,
      "zo": 4681,
      "▁aikaraga": 4682,
      "▁akiumagara": 4683,
      "▁nĩngo": 4684,
      "▁mũthingi": 4685,
      "▁mũkuũ": 4686,
      "renda": 4687,
      "nange": 4688,
      "▁Marĩ": 4689,
      "teithie": 4690,
      "thime": 4691,
      "ku,\n": 4692,
      "kirĩrĩ": 4693,
      "▁Adoni": 4694,
      "▁gũthikĩrĩria": 4695,
      "noni": 4696,
      "▁rĩathani": 4697,
      "▁era": 4698,
      "▁endaga": 4699,
      "▁makĩrĩa": 4700,
      "▁Mata": 4701,
      "▁nĩara": 4702,
      "▁Gũũkĩrĩra": 4703,
      "▁ndamũ": 4704,
      "▁ndakana": 4705,
      "▁tha,\n": 4706,
      "anagĩra": 4707,
      "▁hinya\n": 4708,
      "▁wĩtagwo": 4709,
      "era,": 4710,
      "nyiitĩrĩ": 4711,
      "▁ithaa": 4712,
      "iganaine": 4713,
      "▁nĩmũũĩ": 4714,
      "▁thakame,": 4715,
      "mooraga": 4716,
      "▁nĩngũmũ": 4717,
      "▁nĩngũkũ": 4718,
      "▁guothe,": 4719,
      "▁tũhũ.": 4720,
      "▁Hosea": 4721,
      "▁rwĩ": 4722,
      "▁rũũri": 4723,
      "▁mũthanga": 4724,
      "▁Aamori,": 4725,
      "▁Boa": 4726,
      "nginyĩrĩire,": 4727,
      "▁Kuona": 4728,
      "Je": 4729,
      "igĩrĩre": 4730,
      "ngia": 4731,
      "▁yũ": 4732,
      "▁aini": 4733,
      "▁athuu": 4734,
      "▁mamenye": 4735,
      "▁wagĩrĩire": 4736,
      "▁mũiyũ": 4737,
      "▁mũtooĩ": 4738,
      "▁mũhũũri": 4739,
      "yagĩra": 4740,
      "▁iri": 4741,
      "tũme": 4742,
      "▁ciumĩte": 4743,
      "▁kũiga": 4744,
      "▁kũhingia": 4745,
      "▁kĩrũ": 4746,
      "▁akĩnj": 4747,
      "nyonete": 4748,
      "▁gĩti": 4749,
      "hithĩte": 4750,
      "▁rĩayo": 4751,
      "tĩire": 4752,
      "hĩirie": 4753,
      "huha": 4754,
      "githia": 4755,
      "mbatire": 4756,
      "rie,\n": 4757,
      "▁rũka": 4758,
      "▁tũmũ": 4759,
      "▁maatũ": 4760,
      "▁maakinyire": 4761,
      "▁Ishi": 4762,
      "▁Maha": 4763,
      "▁aage": 4764,
      "▁nĩare": 4765,
      "▁kĩao": 4766,
      "▁mekũ": 4767,
      "▁Ũmwe": 4768,
      "rutage": 4769,
      "▁iria-inĩ,": 4770,
      "▁mairi": 4771,
      "araga": 4772,
      "▁kwaraga": 4773,
      "▁wombire": 4774,
      "eerĩ": 4775,
      "▁nĩmake": 4776,
      "ikarĩra": 4777,
      "▁61": 4778,
      "▁63": 4779,
      "▁66": 4780,
      "▁ũngĩ.\n": 4781,
      "▁Jesũ.\n": 4782,
      "▁ũũke": 4783,
      "▁hĩba": 4784,
      "▁mũno\n": 4785,
      "tigarĩte": 4786,
      "▁kĩrĩkũ": 4787,
      "▁nao.\n": 4788,
      "▁Wee-rĩ,": 4789,
      "▁muoyo-rĩ,": 4790,
      "▁Mwathani\n": 4791,
      "▁mũthenya\n": 4792,
      "▁ake\n": 4793,
      "▁wanyu,\n": 4794,
      "thĩnjĩri-ngai": 4795,
      "▁Mũndũ-wa-nja": 4796,
      "▁gatarũ": 4797,
      "▁kĩu.": 4798,
      "▁maitho,": 4799,
      "▁kwĩhia": 4800,
      "▁Kristũ.\n": 4801,
      "▁akamũ": 4802,
      "shai": 4803,
      "▁moora": 4804,
      "▁thuutha,": 4805,
      "▁kĩĩhitho": 4806,
      "nyendete": 4807,
      "▁Jakubu,\n": 4808,
      "▁ciira.": 4809,
      "▁ũũru.": 4810,
      "hũũrwo": 4811,
      "▁iraaya": 4812,
      "▁barũthi": 4813,
      "cũmbĩrĩ": 4814,
      "▁Nĩngama": 4815,
      "▁matungata": 4816,
      "▁kĩhooto.\n": 4817,
      "kuuaga": 4818,
      "▁mĩgambo": 4819,
      "▁maheeni,": 4820,
      "▁Njĩ": 4821,
      "mbũrũkia": 4822,
      "▁gĩaku.\n": 4823,
      "▁hihi": 4824,
      "▁tuo": 4825,
      "tĩkĩrĩka": 4826,
      "▁mabũrũri-inĩ": 4827,
      "▁Isaaka,": 4828,
      "▁njerũ": 4829,
      "▁mahũa": 4830,
      "▁Loti": 4831,
      "▁cumbĩ": 4832,
      "thĩkagĩre": 4833,
      "▁mĩĩhĩtwa": 4834,
      "▁nĩkĩanginyĩrĩire,": 4835,
      "▁ebodi": 4836,
      "▁Samusoni": 4837,
      "▁ngwatanĩro": 4838,
      ":a": 4839,
      "RĨ": 4840,
      "ithe": 4841,
      "ithĩtie": 4842,
      "so": 4843,
      "▁aciari": 4844,
      "▁ũingĩ": 4845,
      "▁ũrathi": 4846,
      "▁ũgooci": 4847,
      "▁mamĩ": 4848,
      "gacooka": 4849,
      "▁waa": 4850,
      "▁nĩnjĩ": 4851,
      "▁igũ": 4852,
      "▁iko": 4853,
      "kĩkire": 4854,
      "gũri": 4855,
      "ĩrĩirwo": 4856,
      "were": 4857,
      "therera": 4858,
      "▁kũre": 4859,
      "▁kũng": 4860,
      "gura": 4861,
      "roho": 4862,
      "tegwa": 4863,
      "▁atoo": 4864,
      "kio,": 4865,
      "▁Aarĩ": 4866,
      "he,": 4867,
      "▁gũka": 4868,
      "▁akĩrũ": 4869,
      "▁gĩtuamba": 4870,
      "mere": 4871,
      "ngania": 4872,
      "▁njũũ": 4873,
      "▁agĩtiga": 4874,
      "▁rũhe": 4875,
      "▁Harĩ": 4876,
      "▁etĩĩ": 4877,
      "▁maara": 4878,
      "▁maandĩkĩtwo": 4879,
      "▁kĩama": 4880,
      "▁Isiraeli-rĩ,": 4881,
      "▁Ũcooke": 4882,
      "▁ĩyo.\n": 4883,
      "▁kwa\n": 4884,
      "▁Ee": 4885,
      "▁64": 4886,
      "▁ndĩa": 4887,
      "thuurire": 4888,
      "tũũĩ": 4889,
      "tũũgĩria": 4890,
      "▁gũkũ.": 4891,
      "▁nĩũgaa": 4892,
      "▁ngaama": 4893,
      "▁kwĩri": 4894,
      "▁ndũrĩrĩ,\n": 4895,
      "▁anene,": 4896,
      "▁ingĩ,": 4897,
      "▁mũtitũ": 4898,
      "tĩĩo,": 4899,
      "como": 4900,
      "▁Gĩkĩ": 4901,
      "▁Menya": 4902,
      "▁yao.": 4903,
      "▁Sheba": 4904,
      "▁maitũ,": 4905,
      "▁Mĩaka": 4906,
      "▁uume": 4907,
      "▁arogoocwo": 4908,
      "▁Afilisti,": 4909,
      "thaithana": 4910,
      "leadi,": 4911,
      "▁ũnene,": 4912,
      "▁makĩria.": 4913,
      "▁anyu,": 4914,
      "▁ene,": 4915,
      "▁haha.": 4916,
      "▁ĩtano.": 4917,
      "▁Manase,": 4918,
      "▁baba,": 4919,
      "▁ihengere": 4920,
      "▁ithũĩro,": 4921,
      "▁gĩthiithi": 4922,
      "▁mbembe": 4923,
      "▁haaro-ĩ!\n": 4924,
      "▁Ngĩcooka": 4925,
      "▁Gibea": 4926,
      "▁Rubeni,": 4927,
      "▁mĩtamaiyũ": 4928,
      "▁gũkũũrana": 4929,
      "▁kwĩhokeka": 4930,
      "▁Nafitali": 4931,
      "▁mũrũgamĩrĩri": 4932,
      "▁Rũciinĩ": 4933,
      "▁Benaia": 4934,
      "-ma": 4935,
      "zi,": 4936,
      "▁c": 4937,
      "▁ana": 4938,
      "▁ũhiũ": 4939,
      "▁ũmenye": 4940,
      "▁ũhinga": 4941,
      "▁ũruga": 4942,
      "▁matheru": 4943,
      "▁makiumagara": 4944,
      "ga,\n": 4945,
      "raba": 4946,
      "▁ke": 4947,
      "gĩirwo": 4948,
      "▁nĩmwĩ": 4949,
      "▁nĩndĩrĩ": 4950,
      "▁mũrutwo": 4951,
      "▁mũkono": 4952,
      "▁mũtũũre": 4953,
      "kĩhota": 4954,
      "▁kũigana": 4955,
      "ne.\n": 4956,
      "ruu": 4957,
      "rutũ": 4958,
      "▁kĩimba": 4959,
      "▁Ai": 4960,
      "▁Arutwo": 4961,
      "mbo,": 4962,
      "nyi": 4963,
      "nywo": 4964,
      "▁Naha": 4965,
      "geithia": 4966,
      "▁Ita": 4967,
      "▁Nĩmaga": 4968,
      "tĩkie": 4969,
      "hĩtithia": 4970,
      "huruta": 4971,
      "▁agĩkora": 4972,
      "▁agĩthima": 4973,
      "▁agĩciara": 4974,
      "bundi": 4975,
      "▁maaiguire": 4976,
      "thoma": 4977,
      "▁Mati": 4978,
      "▁aatũũrire": 4979,
      "tuĩrie": 4980,
      "horoheria": 4981,
      "▁mega,": 4982,
      "gĩrĩrie": 4983,
      "rio.\n": 4984,
      "▁Ũkai": 4985,
      "bali": 4986,
      "dani": 4987,
      "ikarĩire": 4988,
      "cakaĩra": 4989,
      "▁65": 4990,
      "thũũra": 4991,
      "▁mũno;\n": 4992,
      "▁waku\n": 4993,
      "▁waku;\n": 4994,
      "▁itũũra,": 4995,
      "▁ũyũ\n": 4996,
      "▁Hĩ!": 4997,
      "▁ake.": 4998,
      "▁Karia": 4999,
      "▁mũnene\n": 5000,
      "▁mũnene.\n": 5001,
      "ciarire": 5002,
      "hiũha": 5003,
      "rũgamĩrĩra": 5004,
      "▁kĩu\n": 5005,
      "rekera": 5006,
      "nire,": 5007,
      "▁Li": 5008,
      "▁thũku": 5009,
      "▁ũtariĩ": 5010,
      "shiba": 5011,
      "oneka": 5012,
      "▁Rebe": 5013,
      "▁Gĩkundi": 5014,
      "▁moimaga": 5015,
      "▁atumumu": 5016,
      "▁Solomoni,": 5017,
      "▁kĩhooto,": 5018,
      "▁Akĩmeera": 5019,
      "▁Sihoni": 5020,
      "▁ũgakinya": 5021,
      "▁Shafa": 5022,
      "▁agĩtũmanĩra": 5023,
      "▁ũtukanĩtio": 5024,
      "neanĩte": 5025,
      "▁mũthia-inĩ": 5026,
      "nyariirwo": 5027,
      "▁ihingo-inĩ": 5028,
      "▁Rekei": 5029,
      "▁njega,": 5030,
      "▁aremi": 5031,
      "hĩtĩtie": 5032,
      "▁Galili": 5033,
      "▁ũtaũku": 5034,
      "▁Cooka": 5035,
      "-E": 5036,
      "biri": 5037,
      "oha": 5038,
      "▁ũ?": 5039,
      "▁ũtũũre": 5040,
      "▁mathi": 5041,
      "▁makarũ": 5042,
      "inire": 5043,
      "▁ihaana": 5044,
      "taarĩ": 5045,
      "tagĩrĩra": 5046,
      "tambuu": 5047,
      "ma.\n": 5048,
      "magĩrĩra": 5049,
      "gũti": 5050,
      "gũthiĩ": 5051,
      "▁one": 5052,
      "▁oora": 5053,
      "thera": 5054,
      "therie": 5055,
      "▁kũrehe": 5056,
      "tereire": 5057,
      "tio,": 5058,
      "▁ciatariĩ": 5059,
      "thimo": 5060,
      "thira.\n": 5061,
      "▁ndii": 5062,
      "▁Az": 5063,
      "▁Atha": 5064,
      "▁Ambata": 5065,
      "▁ĩgaa": 5066,
      "▁ĩhaana": 5067,
      "mũcookeria": 5068,
      "▁gũita": 5069,
      "▁gũtungata": 5070,
      "▁akĩmwĩ": 5071,
      "▁ha?": 5072,
      "lita": 5073,
      "metio": 5074,
      "no\n": 5075,
      "▁mũndũ.": 5076,
      "▁Kis": 5077,
      "▁njooke": 5078,
      "▁agĩte": 5079,
      "▁wendete": 5080,
      "▁rũrigi": 5081,
      "▁Hoo": 5082,
      "▁Hinya": 5083,
      "▁tũtarĩ": 5084,
      "nyua,": 5085,
      "▁Mari": 5086,
      "mĩire": 5087,
      "▁ndathi,": 5088,
      "▁magĩthondeka": 5089,
      "▁maikũrũ": 5090,
      "gwo,": 5091,
      "kĩra.": 5092,
      "caaya": 5093,
      "▁mone": 5094,
      "gĩra.\n": 5095,
      "irigĩre": 5096,
      "thũũ": 5097,
      "▁ndĩngĩ": 5098,
      "thu.\n": 5099,
      "▁wakwa\n": 5100,
      "tuĩkaga": 5101,
      "▁rĩu.\n": 5102,
      "bili": 5103,
      "ngerere": 5104,
      "kaga.": 5105,
      "▁Pu": 5106,
      "▁Rĩrĩa\n": 5107,
      "▁mũnene,\n": 5108,
      "▁mũrĩĩ": 5109,
      "honoke": 5110,
      "▁wĩra\n": 5111,
      "▁maaĩ,\n": 5112,
      "▁ngũyũ": 5113,
      "▁inene,\n": 5114,
      "▁yakwa.": 5115,
      "kinyĩrĩire": 5116,
      "▁Mũthamaki\n": 5117,
      "▁nacio,": 5118,
      "▁nacio.": 5119,
      "mwandĩkĩra": 5120,
      "▁ũgaacĩ": 5121,
      "▁Thikĩrĩria": 5122,
      "▁ũkombo": 5123,
      "▁ituri": 5124,
      "▁mahiga,": 5125,
      "thondekera": 5126,
      "rũgamagĩrĩra": 5127,
      "▁nĩgũka": 5128,
      "▁ngero": 5129,
      "▁haha,": 5130,
      "thiũrũrũkĩria": 5131,
      "▁Zayuni,\n": 5132,
      "▁maikarĩte": 5133,
      "▁Jehoiakimu": 5134,
      "▁nĩmũkamenya": 5135,
      "▁Ciira": 5136,
      "thugunda": 5137,
      "▁Bethi-S": 5138,
      "▁Lebanoni": 5139,
      "rũgamĩrĩire": 5140,
      "▁Azaria": 5141,
      "▁Lawi": 5142,
      "▁mũromo-inĩ": 5143,
      "▁Farati": 5144,
      "▁Riiri": 5145,
      "▁kũhooywo": 5146,
      "▁Handũ-harĩa-Hatheru": 5147,
      "oria": 5148,
      "pa,": 5149,
      "▁arũmĩrĩ": 5150,
      "▁nakĩ": 5151,
      "▁maũ": 5152,
      "▁marũrũ": 5153,
      "▁mahooe": 5154,
      "▁mahaicĩte": 5155,
      "gĩĩna": 5156,
      "▁nĩmĩ": 5157,
      "▁mũhũ": 5158,
      "▁mũtia": 5159,
      "▁Netha": 5160,
      "▁itingĩ": 5161,
      "kĩka": 5162,
      "taa": 5163,
      "magia": 5164,
      "tũnge": 5165,
      "gũcooka": 5166,
      "▁Mĩa": 5167,
      "rora,": 5168,
      "▁atuĩ": 5169,
      "▁kĩre": 5170,
      "▁Akaana": 5171,
      "▁Aarĩkia": 5172,
      "▁rĩti": 5173,
      "▁ĩi": 5174,
      "▁ĩro": 5175,
      "▁ĩno,": 5176,
      "▁ĩkoniĩ": 5177,
      "mũrwo": 5178,
      "▁gũte": 5179,
      "▁akĩnyiita": 5180,
      "gemia": 5181,
      "gereka": 5182,
      "eli.": 5183,
      "▁tũtuĩke": 5184,
      "▁endwa": 5185,
      "▁makĩũraga": 5186,
      "▁bende": 5187,
      "▁nĩakĩ": 5188,
      "▁nĩake": 5189,
      "▁Guo": 5190,
      "▁mwage": 5191,
      "▁ndama": 5192,
      "rutani,": 5193,
      "canga": 5194,
      "inie": 5195,
      "▁Joramu": 5196,
      "▁inyuĩ.\n": 5197,
      "▁ndutu": 5198,
      "loni,": 5199,
      "▁kuo,\n": 5200,
      "thinga": 5201,
      "kaga.\n": 5202,
      "nyiitĩtwo": 5203,
      "▁Musa\n": 5204,
      "▁Jerusalemu,\n": 5205,
      "▁itambaya": 5206,
      "heenania": 5207,
      "▁Nĩgũkorwo\n": 5208,
      "rũgamia": 5209,
      "▁hau\n": 5210,
      "▁handũ\n": 5211,
      "▁thimo": 5212,
      "▁ikũmi.": 5213,
      "haandaga": 5214,
      "▁makanitha": 5215,
      "▁mehia.": 5216,
      "▁mwene.\n": 5217,
      "boko": 5218,
      "▁ihinda-inĩ": 5219,
      "▁maithe\n": 5220,
      "▁agacooka": 5221,
      "▁werũ-inĩ.\n": 5222,
      "▁werũ-inĩ,\n": 5223,
      "▁Tama": 5224,
      "▁aya,": 5225,
      "▁moige": 5226,
      "▁kũmakania": 5227,
      "▁Ayahudi,": 5228,
      "▁ũũgĩ,": 5229,
      "▁mũciĩ.": 5230,
      ",000,": 5231,
      "▁Arata": 5232,
      "▁matigacooka": 5233,
      "▁Geda": 5234,
      "▁meciiria-inĩ": 5235,
      "nyariirĩ": 5236,
      "▁tũgĩthiĩ": 5237,
      "▁rũũa": 5238,
      "▁metha-inĩ": 5239,
      "thikĩrĩirie": 5240,
      "▁Aamori": 5241,
      "▁Hebironi": 5242,
      "-Ba": 5243,
      "▁Gĩtuamba-inĩ": 5244,
      "▁Shekemu": 5245,
      "hũthagĩrwo": 5246,
      "minjaminjĩria": 5247,
      "▁cioneki": 5248,
      "▁Amosi": 5249,
      "▁Asheri": 5250,
      "▁Ngerekano": 5251,
      "▁ithuothe": 5252,
      "▁Beni-Ha": 5253,
      "▁Timotheo": 5254,
      "hanyũka": 5255,
      "▁Boazu": 5256,
      "age": 5257,
      "bia,": 5258,
      "erũ": 5259,
      "erusu": 5260,
      "▁,": 5261,
      "▁?\n": 5262,
      "▁lita": 5263,
      "rĩro": 5264,
      "▁agi": 5265,
      "▁atũũ": 5266,
      "▁aigua": 5267,
      "▁ũgi": 5268,
      "▁ũba": 5269,
      "▁ũikaraga": 5270,
      "▁macakaya": 5271,
      "ndiga": 5272,
      "yamũre": 5273,
      "retio": 5274,
      "▁irumi": 5275,
      "▁iroo": 5276,
      "nagĩria": 5277,
      "▁kũrutĩra": 5278,
      "guũra": 5279,
      "▁ciara": 5280,
      "▁ciande": 5281,
      "thigaa": 5282,
      "thio,": 5283,
      "▁Anabii": 5284,
      "▁Ajebu": 5285,
      "▁rĩka": 5286,
      "mbũka": 5287,
      "he\n": 5288,
      "▁akĩhurũka": 5289,
      "▁Icio": 5290,
      "▁mĩrimũ": 5291,
      "no,\n": 5292,
      "▁kanjũ": 5293,
      "▁Mũmi": 5294,
      "▁Mũfilisti": 5295,
      "nganĩte": 5296,
      "hĩndĩ": 5297,
      "▁Hili": 5298,
      "▁ethĩ": 5299,
      "▁bũthi": 5300,
      "▁maati": 5301,
      "▁thĩ;\n": 5302,
      "tobo": 5303,
      "▁aaragia": 5304,
      "▁mwandĩ": 5305,
      "▁magĩtũũra": 5306,
      "▁niĩ,\n": 5307,
      "▁ndũire": 5308,
      "▁woimĩte": 5309,
      "kĩra,": 5310,
      "irigo": 5311,
      "▁hingĩ": 5312,
      "▁Jotha": 5313,
      "▁muone": 5314,
      "kĩte\n": 5315,
      "hinge": 5316,
      "▁mwena-inĩ": 5317,
      "▁ciao\n": 5318,
      "▁nganja": 5319,
      "▁icio\n": 5320,
      "▁ciake\n": 5321,
      "▁inegene": 5322,
      "kinyanĩ": 5323,
      "▁mũgwanja.\n": 5324,
      "▁ciaku.\n": 5325,
      "▁mookire": 5326,
      "zeri,": 5327,
      "suerusu": 5328,
      "▁ningĩ\n": 5329,
      "▁ũkĩma": 5330,
      "cũhie": 5331,
      "▁Tũma": 5332,
      "▁Abija": 5333,
      "▁Aama": 5334,
      "▁ũrĩkũ,": 5335,
      "ingatwo": 5336,
      "tungataga": 5337,
      "▁Paũlũ,": 5338,
      "thondekete": 5339,
      "▁matiarĩ": 5340,
      "haarĩrie": 5341,
      "-Gi": 5342,
      "▁thoguo,": 5343,
      "rigiicĩria": 5344,
      "shethu": 5345,
      "hinyĩrĩria": 5346,
      "▁kũrigĩrĩria": 5347,
      "▁Ahasuerusu": 5348,
      "▁Kaanani,": 5349,
      "▁ũbumba,": 5350,
      "toonyia": 5351,
      "itĩrĩirie": 5352,
      "▁mũhuro": 5353,
      "mbũranga": 5354,
      "▁ĩtandatũ,": 5355,
      "kinyĩtie": 5356,
      "▁maatahĩtwo": 5357,
      "cemania": 5358,
      "rũmbũya": 5359,
      "▁gĩthaka,": 5360,
      "haandĩte": 5361,
      "regete": 5362,
      "▁Amidia": 5363,
      "▁ũrugarĩ": 5364,
      ".)\n": 5365,
      "0.": 5366,
      "dia,": 5367,
      "eka": 5368,
      "ĩirwo": 5369,
      "▁g": 5370,
      "rĩrwo": 5371,
      "▁ũthũ": 5372,
      "▁makiu": 5373,
      "▁mamwĩ": 5374,
      "gĩrie": 5375,
      "▁wandũmire": 5376,
      "▁nĩoo": 5377,
      "▁mũthaka": 5378,
      "▁mũritũ": 5379,
      "▁mũkuru": 5380,
      "▁mũcuka": 5381,
      "▁Nine": 5382,
      "▁itiga": 5383,
      "nani": 5384,
      "thamba": 5385,
      "honge": 5386,
      "▁oe": 5387,
      "▁Mba": 5388,
      "▁kũina": 5389,
      "▁kũrutwo": 5390,
      "▁kũmuona": 5391,
      "▁ndwere": 5392,
      "▁kĩgĩĩna": 5393,
      "▁Ata": 5394,
      "▁Arũme": 5395,
      "tuaga": 5396,
      "kore": 5397,
      "▁ĩgũ": 5398,
      "-inĩ;\n": 5399,
      "mbũraga": 5400,
      "he.": 5401,
      "▁Jehoramu": 5402,
      "▁gũtuĩke": 5403,
      "kũre": 5404,
      "▁gĩtonga": 5405,
      "gerera": 5406,
      "▁mĩte": 5407,
      "▁mĩthingi": 5408,
      "▁kangĩ": 5409,
      "▁tani": 5410,
      "mbate": 5411,
      "▁rũga": 5412,
      "▁eria": 5413,
      "▁makĩrehe": 5414,
      "▁makĩmeera": 5415,
      "▁Maki": 5416,
      "▁aatũ": 5417,
      "▁aakorwo": 5418,
      "thiĩ\n": 5419,
      "▁Isiraeli?": 5420,
      "mĩre": 5421,
      "mĩria": 5422,
      "▁nda,": 5423,
      "▁thami": 5424,
      "▁gĩatũmire": 5425,
      "kia\n": 5426,
      "ugaga": 5427,
      "hiano": 5428,
      "▁ũngĩkorwo": 5429,
      "mĩrĩru": 5430,
      "kaania": 5431,
      "▁Othe": 5432,
      "gwĩte": 5433,
      "▁nyiki": 5434,
      "▁mũtumumu": 5435,
      "▁ngoro\n": 5436,
      "▁yake\n": 5437,
      "▁ithe\n": 5438,
      "nyiitire": 5439,
      "gookĩrĩra": 5440,
      "▁nyamũre,": 5441,
      "▁gũkũ,": 5442,
      "honokagia": 5443,
      "▁wĩra,": 5444,
      "▁ngathĩ": 5445,
      "▁ciake,\n": 5446,
      "igua,": 5447,
      "heenia": 5448,
      "▁mataa": 5449,
      "▁mataaro": 5450,
      "▁riitũ": 5451,
      "▁meekire": 5452,
      "▁nĩmũrĩ": 5453,
      "▁rora": 5454,
      "▁Kĩrĩa": 5455,
      "▁werũ-inĩ.": 5456,
      "▁yao.\n": 5457,
      "▁Tũrĩ": 5458,
      "▁maitũguo": 5459,
      "ingati": 5460,
      "▁Mwene-Hinya-Wothe,\n": 5461,
      "▁ookire": 5462,
      "▁nĩkĩ?\n": 5463,
      "thondekeire": 5464,
      "▁makaaga": 5465,
      "twarana": 5466,
      "▁maingĩ,": 5467,
      "▁maheeni.\n": 5468,
      "▁marorete": 5469,
      "▁Uria": 5470,
      "▁Thabatũ,": 5471,
      "▁atekũ": 5472,
      "▁Abia": 5473,
      "▁bure": 5474,
      "thugundaga": 5475,
      "ciirĩire": 5476,
      "▁Galili,": 5477,
      "cũthĩrĩirie": 5478,
      "▁kũnyuuo": 5479,
      "▁Bethilehemu": 5480,
      "▁ũhootani": 5481,
      "▁Ũrĩa-ũrĩ-Igũrũ-Mũno": 5482,
      "▁Guoko": 5483,
      "▁Beni-Hadadi": 5484,
      ":ũ": 5485,
      "ambata": 5486,
      "ĩta": 5487,
      "▁?": 5488,
      "▁gira": 5489,
      "▁nini": 5490,
      "▁ũthe": 5491,
      "▁ũkwa": 5492,
      "▁ũkorwo": 5493,
      "▁ũkiuma": 5494,
      "▁mathire": 5495,
      "▁wage": 5496,
      "▁watũmire": 5497,
      "▁watariĩ": 5498,
      "▁nĩnde": 5499,
      "cii": 5500,
      "▁mũhũũ": 5501,
      "▁ikorwo": 5502,
      "▁icũhĩ": 5503,
      "thara": 5504,
      "honio": 5505,
      "▁kũũra": 5506,
      "▁kũmwĩ": 5507,
      "▁kũngĩkorwo": 5508,
      "▁kũnyara": 5509,
      "▁1:": 5510,
      "guna": 5511,
      "ro\n": 5512,
      "tete": 5513,
      "tigĩte": 5514,
      "nengere": 5515,
      "kuire": 5516,
      "▁kĩega": 5517,
      "▁Aga": 5518,
      "▁gũkinya": 5519,
      "▁gũciara": 5520,
      "▁akĩiga": 5521,
      "▁gĩga": 5522,
      "▁Naza": 5523,
      "meri": 5524,
      "▁Nĩũka": 5525,
      "▁mĩũru": 5526,
      "▁mĩraihu": 5527,
      "hirie": 5528,
      "hithia": 5529,
      "▁Mũga": 5530,
      "▁Mũtĩ": 5531,
      "hĩrie": 5532,
      "mwendete": 5533,
      "hu,": 5534,
      "▁rũhĩa": 5535,
      "▁tũnini": 5536,
      "▁eera": 5537,
      "▁Rwa": 5538,
      "▁Macio": 5539,
      "▁kĩanda": 5540,
      "gwatwo": 5541,
      "bara": 5542,
      "▁niĩ-rĩ,": 5543,
      "▁mondo": 5544,
      "cookerere": 5545,
      "▁ũngĩ\n": 5546,
      "▁100": 5547,
      "thuurĩire": 5548,
      "▁119": 5549,
      "▁rĩu-rĩ,": 5550,
      "bi,": 5551,
      "▁Hau": 5552,
      "▁Hamwe": 5553,
      "▁ngoro,\n": 5554,
      "▁Hĩndĩ\n": 5555,
      "kaga\n": 5556,
      "▁macio-rĩ,": 5557,
      "▁Kade": 5558,
      "▁yothe,\n": 5559,
      "▁Hema-inĩ": 5560,
      "▁inene.\n": 5561,
      "▁kĩndũ\n": 5562,
      "▁yakwa.\n": 5563,
      "kanĩtie": 5564,
      "haand": 5565,
      "▁maku,\n": 5566,
      "▁magathiĩ": 5567,
      "▁ciana,": 5568,
      "▁Kristũ\n": 5569,
      "▁riiko": 5570,
      "▁mwaki,\n": 5571,
      "▁mwaki-inĩ": 5572,
      "▁Mwendwa": 5573,
      "iyũria": 5574,
      "naga\n": 5575,
      "▁mũtige": 5576,
      "hokeirwo": 5577,
      "▁ho.\n": 5578,
      "▁Kĩu": 5579,
      "▁Babuloni.\n": 5580,
      "▁yao,\n": 5581,
      "▁ciĩhitho": 5582,
      "rũrũka": 5583,
      "▁njora.\n": 5584,
      "ũkĩrĩra,": 5585,
      "▁nyingĩ,\n": 5586,
      "▁nĩmakamũ": 5587,
      "▁aaganu,\n": 5588,
      "▁ondu,": 5589,
      "kenagio": 5590,
      "▁Shalu": 5591,
      "▁matiandĩkĩtwo": 5592,
      "▁Jorodani.": 5593,
      "▁kũngĩ,": 5594,
      "▁Nĩmaka": 5595,
      "hĩtie,": 5596,
      "▁ombe,": 5597,
      "tĩkĩrĩtio": 5598,
      "▁therie": 5599,
      "▁Mũtheru,": 5600,
      "▁kũigĩrĩrwo": 5601,
      "▁nĩndĩmũ": 5602,
      "tunyana": 5603,
      "▁ndũrĩrĩ,": 5604,
      "hurunja": 5605,
      "▁hwaĩ-inĩ.": 5606,
      "ringĩrĩria": 5607,
      "thikagĩrĩria": 5608,
      "inamĩrĩra,": 5609,
      "▁Mũraika": 5610,
      "▁mũkũyũ": 5611,
      "▁agĩũkĩra,": 5612,
      "▁kĩmako": 5613,
      "▁Bashani": 5614,
      "▁Simeoni": 5615,
      "▁gwĩtigĩrwo": 5616,
      "▁Kiriathu-": 5617,
      "▁ũgumu": 5618,
      "▁Abiatha": 5619,
      "▁Nazare": 5620,
      ",5": 5621,
      "eheria": 5622,
      "ie": 5623,
      "twĩra": 5624,
      "zia,": 5625,
      "ĩtwo": 5626,
      "ũkĩrwo": 5627,
      "▁anjĩ": 5628,
      "▁atigane": 5629,
      "▁ũraga": 5630,
      "rahũ": 5631,
      "ri;\n": 5632,
      "▁nĩtwĩ": 5633,
      "▁mũtingĩ": 5634,
      "▁itĩ": 5635,
      "taara": 5636,
      "tanĩtio": 5637,
      "kenagia": 5638,
      "▁ongo": 5639,
      "▁kũheana": 5640,
      "terera": 5641,
      "nirio": 5642,
      "▁rĩũrĩ": 5643,
      "▁gũteithia": 5644,
      "▁Nĩnge": 5645,
      "▁Mũũ": 5646,
      "▁Mũthia": 5647,
      "▁Kuu": 5648,
      "▁agĩthondeka": 5649,
      "▁agĩtambũrũkia": 5650,
      "giĩ": 5651,
      "▁rũmena": 5652,
      "▁Hara": 5653,
      "▁Haga": 5654,
      "▁endete": 5655,
      "▁makĩũrania": 5656,
      "▁Ri": 5657,
      "▁kũrĩha": 5658,
      "▁Macakaya": 5659,
      "▁aathiiaga": 5660,
      "▁nĩage": 5661,
      "▁mwendwa": 5662,
      "▁thabina": 5663,
      "▁Bili": 5664,
      "barũthi": 5665,
      "gwo\n": 5666,
      "▁mbere.\n": 5667,
      "▁Eki": 5668,
      "hooha": 5669,
      "caka": 5670,
      "▁67": 5671,
      "▁Jeshu": 5672,
      "lethu": 5673,
      "▁70": 5674,
      "kaagĩa": 5675,
      "▁angĩ\n": 5676,
      "loni": 5677,
      "▁mũtu,": 5678,
      "▁Naomi": 5679,
      "▁ithe.": 5680,
      "▁Ziki": 5681,
      "rĩte\n": 5682,
      "▁macio.\n": 5683,
      "ciarirwo": 5684,
      "honokirie": 5685,
      "rongoragia": 5686,
      "▁Jabe": 5687,
      "▁moko,": 5688,
      "▁Gileadi,": 5689,
      "▁(A": 5690,
      "ĩage": 5691,
      "▁thuutha.": 5692,
      "▁nacio\n": 5693,
      "▁agĩthiĩ,": 5694,
      "▁kĩĩroho": 5695,
      "▁ndaama": 5696,
      "▁mbaara.\n": 5697,
      "doni,": 5698,
      "rutĩrwo": 5699,
      "▁Gadi,": 5700,
      "▁Kĩhi": 5701,
      "▁kĩgongona,": 5702,
      "▁gĩothe\n": 5703,
      "thiiage": 5704,
      "thiiagĩra": 5705,
      "herere": 5706,
      "▁thaahu.\n": 5707,
      "▁biũ,\n": 5708,
      "▁thayũ.\n": 5709,
      "▁mwega.": 5710,
      "geetagwo": 5711,
      "▁Afilisti.": 5712,
      "rigania": 5713,
      "▁mbarathi,": 5714,
      "mũheire": 5715,
      "▁Ramothu": 5716,
      "▁anabii,": 5717,
      "▁rĩaku.\n": 5718,
      "▁tũhũ,": 5719,
      "▁Hema-ĩ": 5720,
      "hingĩte": 5721,
      "▁keerĩ,": 5722,
      "▁guoya,": 5723,
      "▁nĩarĩkĩtie": 5724,
      "▁gatatũ,": 5725,
      "hinyagĩrĩria": 5726,
      "▁Hema-ya-Gũtũnganwo,": 5727,
      "▁mũtharaba": 5728,
      "ni-we": 5729,
      "thikĩrĩrie": 5730,
      "▁Hebironi,": 5731,
      "tinia": 5732,
      "▁gĩthũri": 5733,
      "▁aamwathĩte": 5734,
      "▁Karime": 5735,
      "▁gũtikagĩe": 5736,
      "▁ndirica": 5737,
      "▁mũiyũro": 5738,
      "▁Mĩario": 5739,
      "▁Gedalia": 5740,
      "▁atũũri": 5741,
      "▁ndwere-inĩ": 5742,
      "TH": 5743,
      "a.\n": 5744,
      "fitha": 5745,
      "lia,": 5746,
      "ntio": 5747,
      "rwe": 5748,
      "siri": 5749,
      "za,": 5750,
      "▁ahũ": 5751,
      "▁nakĩo,": 5752,
      "▁ũnj": 5753,
      "▁ũtheru": 5754,
      "▁ũndu": 5755,
      "▁matoonye": 5756,
      "gatua": 5757,
      "gĩĩre": 5758,
      "▁igera": 5759,
      "nagĩrĩria": 5760,
      "hoto": 5761,
      "hazu": 5762,
      "roaga": 5763,
      "▁Jefitha": 5764,
      "▁nditũ": 5765,
      "kue": 5766,
      "▁Arĩria": 5767,
      "thĩkĩire": 5768,
      "rwo,\n": 5769,
      "▁gũthima": 5770,
      "▁gũtharĩkĩra": 5771,
      "▁gũgaatuĩka": 5772,
      "ngĩa": 5773,
      "▁gĩgaa": 5774,
      "▁gĩtuĩke": 5775,
      "▁Naho": 5776,
      "▁Nĩnj": 5777,
      "▁mĩbango": 5778,
      "hĩra": 5779,
      "hĩngwo": 5780,
      "hutie": 5781,
      "hudu": 5782,
      "▁nokuo": 5783,
      "mbatĩte": 5784,
      "▁makĩhooya": 5785,
      "▁maare": 5786,
      "▁Mahinda": 5787,
      "▁aame": 5788,
      "▁aathiire": 5789,
      "thiĩ,": 5790,
      "▁tha.": 5791,
      "▁magĩkora": 5792,
      "▁kũu.": 5793,
      "gwo.\n": 5794,
      "mita": 5795,
      "▁wake-rĩ,": 5796,
      "▁68": 5797,
      "cookagia": 5798,
      "▁ndĩ\n": 5799,
      "▁ũngĩ,\n": 5800,
      "thu.": 5801,
      "▁O\n": 5802,
      "▁Joeli": 5803,
      "▁aarĩkirie": 5804,
      "▁heho": 5805,
      "▁Baru": 5806,
      "▁kuoya": 5807,
      "▁Mwathani.\n": 5808,
      "▁Hĩ,": 5809,
      "ngũĩra": 5810,
      "▁ake,\n": 5811,
      "▁gwĩta": 5812,
      "rĩte.": 5813,
      "▁gatandatũ": 5814,
      "ciare": 5815,
      "▁icio.": 5816,
      "▁Kũrĩa": 5817,
      "▁magatuĩka": 5818,
      "▁mũgwanja\n": 5819,
      "▁ririkana": 5820,
      "▁ciaku.": 5821,
      "▁ciaku,\n": 5822,
      "thondeki": 5823,
      "▁nĩngakũ": 5824,
      "▁ũtaaro": 5825,
      "nyenye": 5826,
      "mwarĩria": 5827,
      "iyũrĩtio": 5828,
      "▁tũrĩma": 5829,
      "▁hothe": 5830,
      "▁iraatũ": 5831,
      "▁akwa,\n": 5832,
      "▁atariĩ": 5833,
      "▁gwake,": 5834,
      "sito": 5835,
      "▁ũkaamũ": 5836,
      "▁Akĩĩra": 5837,
      "▁Solomoni\n": 5838,
      "geeta": 5839,
      "▁mũciĩ,": 5840,
      "▁maheeni,\n": 5841,
      "thiũrũrũka": 5842,
      "regana": 5843,
      "▁Petero,": 5844,
      "▁akaaga": 5845,
      "menyererei": 5846,
      "tũũgĩrio": 5847,
      "▁Baasha": 5848,
      "▁kĩronda": 5849,
      "▁aragu,": 5850,
      "humbaga": 5851,
      "▁Ihinda-inĩ": 5852,
      "▁kũhoroheria": 5853,
      "momora": 5854,
      "▁Ciugo": 5855,
      "▁Kushi": 5856,
      "riganĩirwo": 5857,
      "gitĩri": 5858,
      "▁rĩera-inĩ": 5859,
      "▁athiritũ": 5860,
      "▁kũhunjia": 5861,
      "▁Hekarũ\n": 5862,
      "▁Birishiba": 5863,
      "▁moragĩtwo": 5864,
      "▁Filipu": 5865,
      "▁njoohi": 5866,
      "▁Negevu": 5867,
      "▁Hooya": 5868,
      "▁giramu": 5869,
      "-mũ": 5870,
      "fira": 5871,
      "io": 5872,
      "ikio": 5873,
      "▁th": 5874,
      "▁arũgamĩte": 5875,
      "▁athambi": 5876,
      "▁ũhi": 5877,
      "▁maruru": 5878,
      "▁mathaga": 5879,
      "▁matongo": 5880,
      "ragire": 5881,
      "ririo": 5882,
      "▁wabu": 5883,
      "▁nĩ:\n": 5884,
      "▁nĩũũ": 5885,
      "▁nĩtũũĩ": 5886,
      "▁mũthĩnjĩri-\n": 5887,
      "▁Nguo": 5888,
      "▁irũ": 5889,
      "▁icu": 5890,
      "▁ituĩro": 5891,
      "kĩmũ": 5892,
      "rũngiĩ": 5893,
      "thambia": 5894,
      "▁kũrũgamĩrĩra": 5895,
      "▁1,": 5896,
      "teithũra": 5897,
      "ne,\n": 5898,
      "rume": 5899,
      "kirio": 5900,
      "▁kĩhi": 5901,
      "▁rĩtuĩke": 5902,
      "▁ĩkaa": 5903,
      "▁2:": 5904,
      "wĩgwatĩre": 5905,
      "▁gũgaa": 5906,
      "▁gũkuua": 5907,
      "▁gũtuĩrwo": 5908,
      "▁akĩũra": 5909,
      "▁Nakuo": 5910,
      "▁Naama": 5911,
      "gei": 5912,
      "▁Irio": 5913,
      "▁Igua": 5914,
      "▁mĩtũ": 5915,
      "noga": 5916,
      "▁kamwana": 5917,
      "▁Mũbati": 5918,
      "tĩkirie": 5919,
      "▁The": 5920,
      "▁we.\n": 5921,
      "▁rũhĩ": 5922,
      "▁Hira": 5923,
      "▁tũcunjĩ": 5924,
      "▁tũtingĩ": 5925,
      "▁Maaka": 5926,
      "mothu,": 5927,
      "▁Sis": 5928,
      "gwatia": 5929,
      "▁metĩkĩtie": 5930,
      "▁mwagĩrĩirwo": 5931,
      "▁Betha": 5932,
      "▁gĩaku,": 5933,
      "▁kwambata": 5934,
      "▁kwanangĩ": 5935,
      "▁Wĩra": 5936,
      "▁wonjoria": 5937,
      "▁69": 5938,
      "▁ndĩci": 5939,
      "▁72": 5940,
      "▁Oho": 5941,
      "▁Oba": 5942,
      "ineha": 5943,
      "▁angĩa": 5944,
      "irie\n": 5945,
      "kire\n": 5946,
      "ngeeri": 5947,
      "▁ariũ\n": 5948,
      "▁witũ\n": 5949,
      "▁twao": 5950,
      "▁twamo": 5951,
      "▁tiguo": 5952,
      "▁wega,\n": 5953,
      "shula": 5954,
      "mũrehe": 5955,
      "▁ithano,": 5956,
      "▁ngũtũũra": 5957,
      "▁inene\n": 5958,
      "kũrũka": 5959,
      "▁(4": 5960,
      "▁nĩoĩ": 5961,
      "▁agĩthiĩ\n": 5962,
      "nĩrĩrai": 5963,
      "shita": 5964,
      "▁maraya": 5965,
      "▁thahabu.\n": 5966,
      "naga,": 5967,
      "▁Fineha": 5968,
      "▁ithuĩ\n": 5969,
      "hokeku,": 5970,
      "▁Taris": 5971,
      "▁akĩanĩrĩra": 5972,
      "▁ũũgĩ,\n": 5973,
      "tungatagĩre": 5974,
      "▁mũtĩ-igũrũ": 5975,
      "thondekere": 5976,
      "▁kanua-inĩ": 5977,
      "▁ndibei,": 5978,
      "▁mũtwe.": 5979,
      "▁Efe": 5980,
      "▁yanyu.": 5981,
      "▁maroo": 5982,
      "▁tũhũ.\n": 5983,
      "▁gũtahwo": 5984,
      "▁wayo,": 5985,
      "menyerere": 5986,
      "▁tuothe": 5987,
      "▁Ashuri,": 5988,
      "▁ciehere": 5989,
      "▁kũririkana": 5990,
      "▁gũthini,": 5991,
      "▁ndangĩhota": 5992,
      "kiumagara,": 5993,
      "▁buti": 5994,
      "▁akuũ,": 5995,
      "▁Betheli,": 5996,
      "taũkĩrwo": 5997,
      "▁Amunoni": 5998,
      "▁gĩkabũ": 5999,
      "▁njohero": 6000,
      "▁mũthoni-we": 6001,
      "▁Makedo": 6002,
      "▁kũriũka": 6003,
      "▁Thondeka": 6004,
      "▁Hazaeli": 6005,
      "▁Perisia": 6006,
      "▁arũmĩrĩri": 6007,
      "▁bendera": 6008,
      "-Gileadi": 6009,
      "▁buremu": 6010,
      "▁rĩũrĩro": 6011,
      "▁Mũbatithania": 6012,
      "A\n": 6013,
      "athi": 6014,
      "cĩre": 6015,
      "ũrĩra": 6016,
      "▁ini": 6017,
      "▁honokia": 6018,
      "▁aũra": 6019,
      "▁arũa": 6020,
      "▁atũũre": 6021,
      "▁aciiri": 6022,
      "▁ũikare": 6023,
      "▁makoragwo": 6024,
      "ringe": 6025,
      "ringire": 6026,
      "gĩĩra": 6027,
      "▁wara": 6028,
      "▁mũkĩra": 6029,
      "▁mũigue": 6030,
      "▁Ngo": 6031,
      "▁itirĩ": 6032,
      "▁iboko": 6033,
      "ma,\n": 6034,
      "gũtuĩka": 6035,
      "ĩrĩnga": 6036,
      "▁ciũria": 6037,
      "▁ciĩranĩro": 6038,
      "hake": 6039,
      "hazi": 6040,
      "▁kũnene": 6041,
      "gu,": 6042,
      "▁ciakĩo": 6043,
      "▁Jeze": 6044,
      "kiriĩ": 6045,
      "▁kĩririka": 6046,
      "▁Ae": 6047,
      "▁Akiuga": 6048,
      "▁Abe": 6049,
      "komete": 6050,
      "mbu": 6051,
      "mbia,": 6052,
      "heme": 6053,
      "helethu": 6054,
      "▁gũkirĩrĩria": 6055,
      "▁akĩarĩria": 6056,
      "ngĩrĩria": 6057,
      "nyũrũri": 6058,
      "▁hangĩ": 6059,
      "▁gĩtarĩ": 6060,
      "▁gĩtĩĩo,": 6061,
      "▁mĩri": 6062,
      "noge": 6063,
      "hikania": 6064,
      "▁Mũthuuri": 6065,
      "▁Mũrutani,": 6066,
      "hĩndo": 6067,
      "yũria": 6068,
      "thamakĩra": 6069,
      "eli.\n": 6070,
      "▁tũkũ": 6071,
      "▁egũtũũra": 6072,
      "▁makĩo": 6073,
      "▁makĩnyiita": 6074,
      "▁Mali": 6075,
      "▁aamwĩrĩ": 6076,
      "two.\n": 6077,
      "▁kĩayo": 6078,
      "▁Sho": 6079,
      "▁Sena": 6080,
      "tuĩre": 6081,
      "▁menye": 6082,
      "▁mehere": 6083,
      "▁ũrĩo,": 6084,
      "ruta\n": 6085,
      "▁gategwa": 6086,
      "nia,\n": 6087,
      "▁nĩmage": 6088,
      "tie\n": 6089,
      "▁ndĩro": 6090,
      "▁ũngĩĩ": 6091,
      "▁ũngĩenda": 6092,
      "▁71": 6093,
      "▁Obedi": 6094,
      "▁wothe,\n": 6095,
      "▁nduĩra": 6096,
      "▁Hazo": 6097,
      "▁Wee\n": 6098,
      "latia": 6099,
      "ũũria": 6100,
      "▁ngoro,": 6101,
      "▁ake.\n": 6102,
      "▁ngĩthiĩ": 6103,
      "▁itherũ": 6104,
      "▁warĩo,": 6105,
      "▁Andũ\n": 6106,
      "▁akĩmũtua": 6107,
      "rĩte.\n": 6108,
      "▁icio.\n": 6109,
      "▁wega\n": 6110,
      "▁maaĩ\n": 6111,
      "▁wao\n": 6112,
      "▁watho\n": 6113,
      "▁watho.": 6114,
      "▁watho-inĩ": 6115,
      "▁Hezi": 6116,
      "mũrehere": 6117,
      "▁ngũhe": 6118,
      "rũgamĩrĩri": 6119,
      "ithirie": 6120,
      ":29": 6121,
      "▁naguo,": 6122,
      "▁araka": 6123,
      "▁makuo": 6124,
      "▁ciakuo": 6125,
      "ithanagia": 6126,
      "bothu": 6127,
      "ũraga.": 6128,
      "▁thuutha\n": 6129,
      "▁mbaara,\n": 6130,
      "naga.\n": 6131,
      "▁ithuĩ.": 6132,
      "▁Ĩka": 6133,
      "▁maguta.": 6134,
      "▁oiki": 6135,
      "▁Harũni\n": 6136,
      "nĩrai": 6137,
      "▁Roho,": 6138,
      "▁riiri,": 6139,
      "▁maitũ.": 6140,
      "▁gwake.": 6141,
      "▁ciakwa.": 6142,
      "▁ciakwa,\n": 6143,
      "▁Akĩmwĩra": 6144,
      "▁makĩanĩrĩra": 6145,
      "tharĩkĩire": 6146,
      "menyeka": 6147,
      "heanire": 6148,
      "heanĩtwo": 6149,
      "▁rĩakwa.": 6150,
      "▁ũthingu,\n": 6151,
      "▁mũnabii,": 6152,
      "▁Uzi": 6153,
      "▁Uzia": 6154,
      "▁Laki": 6155,
      "ciarĩra": 6156,
      "▁mũthiringo": 6157,
      ":5)": 6158,
      "▁wayo.": 6159,
      "▁gĩaku,\n": 6160,
      "humbwo": 6161,
      "humbĩrĩte": 6162,
      "▁kũũrĩra": 6163,
      "humbĩre": 6164,
      "ngererwo": 6165,
      "▁Kohelethu": 6166,
      "rũmagĩrĩra": 6167,
      "rutirwo": 6168,
      "▁Ndirĩ": 6169,
      "▁kĩũngano-inĩ": 6170,
      "thingithia": 6171,
      "saloni": 6172,
      "▁maigua": 6173,
      "▁wiki,": 6174,
      "▁kĩhuhĩro-inĩ": 6175,
      "▁mũhaka-inĩ": 6176,
      "▁ekũũria": 6177,
      "▁Kurusu": 6178,
      "harũrũka": 6179,
      "▁makĩũngana": 6180,
      "gũũta": 6181,
      "▁Shimei": 6182,
      "▁ngarari": 6183,
      "▁giitũ": 6184,
      "▁gakarakũ,": 6185,
      "▁ũgaacĩru": 6186,
      "▁irooto": 6187,
      "▁Mũmisiri": 6188,
      "▁gwitũ": 6189,
      "▁thamiri": 6190,
      "▁thwa": 6191,
      "ikie": 6192,
      "▁ngũrũ": 6193,
      "rĩĩaga": 6194,
      "▁ahote": 6195,
      "▁ũũra": 6196,
      "▁ũkĩra": 6197,
      "▁ũhinya": 6198,
      "▁ũmwĩre": 6199,
      "▁ũcamba": 6200,
      "▁mane": 6201,
      "▁matie": 6202,
      "rathĩ": 6203,
      "nduĩte": 6204,
      "▁koo": 6205,
      "▁kwĩrĩ": 6206,
      "▁wana": 6207,
      "▁waragia": 6208,
      "▁nĩng": 6209,
      "kĩndũ": 6210,
      "kĩirwo": 6211,
      "thagĩrĩria": 6212,
      "▁ciyũ": 6213,
      "▁o,": 6214,
      "▁oya": 6215,
      "▁kũmwĩra": 6216,
      "▁kũna,": 6217,
      "▁kũmenyerera": 6218,
      "roraga": 6219,
      "ne\n": 6220,
      "▁yagĩrĩire": 6221,
      "▁ndira": 6222,
      "kindĩ": 6223,
      "▁Antio": 6224,
      "koiga": 6225,
      "konyo": 6226,
      "▁rĩga": 6227,
      "thĩkĩre": 6228,
      "▁gũtũũ": 6229,
      "▁gũkoma": 6230,
      "▁gũgaakorwo": 6231,
      "▁akĩara": 6232,
      "ngĩte": 6233,
      "kũyũ": 6234,
      "▁gĩgaatuĩka": 6235,
      "▁gĩcũhĩ": 6236,
      "▁Nĩkĩo": 6237,
      "▁mĩgwa": 6238,
      "▁mĩega": 6239,
      "hirwo": 6240,
      "hikĩtie": 6241,
      "▁Mũnabii": 6242,
      "hĩnga": 6243,
      "▁mũndũ,\n": 6244,
      "hunjia": 6245,
      "▁agĩe": 6246,
      "▁tũke": 6247,
      "▁tũgũ": 6248,
      "▁bara": 6249,
      "▁nĩagaa": 6250,
      "▁nĩatũmĩte": 6251,
      "▁nĩathiire": 6252,
      "▁mwerũ": 6253,
      "▁Beli": 6254,
      "▁magĩtu": 6255,
      "▁magĩcookeria": 6256,
      "▁mũthamaki,\n": 6257,
      "mirie": 6258,
      "▁Ede": 6259,
      "▁nĩmama": 6260,
      "ikarire": 6261,
      "ikaro-inĩ": 6262,
      "▁morirũ": 6263,
      "gĩra,": 6264,
      "▁Do": 6265,
      "▁ũguo?": 6266,
      "▁igũrũ;\n": 6267,
      "▁ndĩmwa": 6268,
      "▁wakwa?": 6269,
      "▁inyuĩ-rĩ,": 6270,
      "thuurĩtwo": 6271,
      "▁Rĩĩrĩ": 6272,
      "▁angĩenda": 6273,
      "▁muoroto": 6274,
      "▁hinya;\n": 6275,
      "▁Daudi.\n": 6276,
      "▁wĩke": 6277,
      "▁akerubi": 6278,
      "▁irĩma,": 6279,
      "▁ndikũ": 6280,
      "rire.": 6281,
      "▁itangĩ": 6282,
      "▁ĩtana": 6283,
      "▁make,\n": 6284,
      "▁yaku\n": 6285,
      "▁ngũkũ": 6286,
      "rũgamo": 6287,
      ":25)": 6288,
      "▁ikũmi\n": 6289,
      "kinya-rĩ,": 6290,
      "ringaine": 6291,
      "▁naguo\n": 6292,
      "▁naguo.": 6293,
      "▁makuĩte": 6294,
      "▁mũtumia\n": 6295,
      "▁irio,\n": 6296,
      "▁matimũ": 6297,
      "mwĩrire": 6298,
      "▁mĩaka\n": 6299,
      "▁mũrangĩri": 6300,
      "▁ũtaana": 6301,
      "▁thahabu.": 6302,
      "▁Jakubu.": 6303,
      "tĩĩna": 6304,
      "▁Ĩrai": 6305,
      "▁thakame.": 6306,
      "▁ciira.\n": 6307,
      "▁irathimo": 6308,
      "▁mũthĩnjĩri-Ngai\n": 6309,
      "▁maruta\n": 6310,
      "▁Babuloni\n": 6311,
      "▁Meshula": 6312,
      "▁makooragwo": 6313,
      "herithie": 6314,
      "▁Nĩngamũ": 6315,
      "▁Jeremia,": 6316,
      "▁Nebati": 6317,
      "▁atano": 6318,
      "▁aingĩ,": 6319,
      "▁ũrĩkũ.": 6320,
      "▁ũgĩtuĩka": 6321,
      "▁magũrũ,": 6322,
      "nyiita,": 6323,
      "▁ũkaaga": 6324,
      "▁Akĩma": 6325,
      ":31": 6326,
      ":38": 6327,
      "▁oonire": 6328,
      "▁nyondo": 6329,
      "▁akĩĩhĩta": 6330,
      "thaahĩtie": 6331,
      "▁Ahiti,": 6332,
      "heani": 6333,
      "▁Maase": 6334,
      "▁aaganu.\n": 6335,
      "▁agaakorwo": 6336,
      ",000.\n": 6337,
      "ciarĩire": 6338,
      "▁Thiĩ,": 6339,
      "▁Hore": 6340,
      "▁ndũkareke": 6341,
      "▁Zayuni,": 6342,
      "njorithia": 6343,
      "▁matetĩkĩtie": 6344,
      "▁kĩngĩtũma": 6345,
      "▁Shilo": 6346,
      "▁Lea": 6347,
      "▁Samaria,": 6348,
      "▁mũtamaiyũ": 6349,
      "▁ũtũme": 6350,
      "▁magigi,": 6351,
      "▁akĩũrĩra": 6352,
      "kinyĩire": 6353,
      "nyũrũragia": 6354,
      "▁rekei": 6355,
      "▁arũngĩrĩru": 6356,
      "▁Mũtikane": 6357,
      "▁yeerĩ": 6358,
      "tigĩri": 6359,
      "thĩĩnĩka": 6360,
      "▁Ameni.\n": 6361,
      "▁nĩngwa": 6362,
      "▁uumaga": 6363,
      "ohete": 6364,
      "▁iguai": 6365,
      "▁Zeruba": 6366,
      "▁atoonye": 6367,
      "▁Rebeka": 6368,
      "gũtigithĩ": 6369,
      "▁Rwaro": 6370,
      "▁Kadeshi": 6371,
      "▁Baruku": 6372,
      "-Ũ": 6373,
      "75)": 6374,
      ":mũ": 6375,
      "e.\n": 6376,
      "▁.": 6377,
      "▁gaa": 6378,
      "▁mĩrĩnga": 6379,
      "▁athĩnjĩri-\n": 6380,
      "thĩrĩria": 6381,
      "▁ũtũũra": 6382,
      "▁ũthaka": 6383,
      "▁ũgooka": 6384,
      "▁ũhote": 6385,
      "▁maha": 6386,
      "▁makorwo": 6387,
      "▁manini": 6388,
      "▁mabata": 6389,
      "▁matooĩ": 6390,
      "▁matuĩro": 6391,
      "ringĩrĩ": 6392,
      "▁nĩruo": 6393,
      "▁mũreke": 6394,
      "remwo": 6395,
      "rehwo": 6396,
      "▁iherithia": 6397,
      "tahĩte": 6398,
      "kera": 6399,
      "thagĩra": 6400,
      "hoera": 6401,
      "▁oiga": 6402,
      "▁kũheo": 6403,
      "▁kũrũmbũiya": 6404,
      "rorera": 6405,
      "ti.": 6406,
      "tiiria": 6407,
      "▁yarĩo": 6408,
      "kuhĩrĩ": 6409,
      "kue.": 6410,
      "▁kĩnũ": 6411,
      "▁Amwe": 6412,
      "tuĩrĩire": 6413,
      "▁rĩgaa": 6414,
      "▁gũtwe": 6415,
      "▁gũtungatĩra": 6416,
      "ngĩra": 6417,
      "getigĩre": 6418,
      "▁Nĩme": 6419,
      "▁Nĩmwa": 6420,
      "▁mĩthia": 6421,
      "▁mĩhiano": 6422,
      "▁kamũ": 6423,
      "▁Mũa": 6424,
      "▁Mũthi": 6425,
      "▁tawe": 6426,
      "▁3:": 6427,
      "▁Kũrũ": 6428,
      "▁agĩkua,": 6429,
      "▁we,\n": 6430,
      "▁tũtiga": 6431,
      "▁tũgĩe": 6432,
      "▁eke": 6433,
      "▁maakinyĩtie": 6434,
      "▁Maguta": 6435,
      "▁nĩagĩ": 6436,
      "▁kĩaguo": 6437,
      "gĩrĩrai": 6438,
      "uĩkĩte": 6439,
      "▁ũrĩe": 6440,
      "▁bũrũri,": 6441,
      "▁mweri,": 6442,
      "▁gĩakĩo": 6443,
      "gwo.": 6444,
      "hũka,": 6445,
      "▁gatu": 6446,
      "▁kwamũkĩra": 6447,
      "njĩĩrire": 6448,
      "▁woe": 6449,
      "▁nĩmagooka": 6450,
      "caa": 6451,
      "anagĩrĩra": 6452,
      "ndonire": 6453,
      "mia,": 6454,
      "▁ũguo,\n": 6455,
      "thũkĩra": 6456,
      "▁ndĩmĩ": 6457,
      "▁73": 6458,
      "▁74": 6459,
      "▁mũno;": 6460,
      "tigagĩre": 6461,
      "tuĩkanĩirie": 6462,
      "thuure": 6463,
      "▁aarĩtie": 6464,
      "▁angĩkaa": 6465,
      "▁nĩwe,": 6466,
      "▁Ningĩ-rĩ,": 6467,
      "▁kuoneka": 6468,
      "kĩte,\n": 6469,
      "▁mwĩthĩ": 6470,
      "kagaya": 6471,
      "▁Juda,\n": 6472,
      "▁Pere": 6473,
      "rĩte,\n": 6474,
      "▁Musa.": 6475,
      "▁wee\n": 6476,
      "▁mũrĩe": 6477,
      "▁tigai": 6478,
      "▁Kũi": 6479,
      "▁njĩra,": 6480,
      "risho": 6481,
      "▁ngũrwe": 6482,
      "rũgame": 6483,
      "▁hekarũ\n": 6484,
      "▁nĩngagũ": 6485,
      "▁matikana": 6486,
      "ũraga.\n": 6487,
      "hota\n": 6488,
      "▁mbaara.": 6489,
      "▁rorai": 6490,
      "▁kũringana\n": 6491,
      "▁iruta\n": 6492,
      "▁oige": 6493,
      "fu,": 6494,
      "▁igongona\n": 6495,
      "▁Kĩndũ": 6496,
      "rathimwo": 6497,
      "kwo,": 6498,
      "▁Meere": 6499,
      "▁makoo": 6500,
      "▁ũkoretwo": 6501,
      "▁atunya": 6502,
      "▁gũtuĩka\n": 6503,
      "▁hakuhĩ\n": 6504,
      "▁gĩake.": 6505,
      "▁gĩake.\n": 6506,
      "▁agĩcookanĩrĩria": 6507,
      "-ĩ,": 6508,
      "▁akĩĩgũithia": 6509,
      "▁Ahiv": 6510,
      "▁rĩakwa.\n": 6511,
      "▁mĩgamba": 6512,
      "▁maheeni.": 6513,
      "kayagĩra": 6514,
      "▁mbugĩrĩrio": 6515,
      "▁ithatũ,": 6516,
      "humbu": 6517,
      "keribu": 6518,
      "▁ũiti": 6519,
      "▁mwĩhĩtwa,": 6520,
      "▁Thabatũ.": 6521,
      "kũngũĩra": 6522,
      "▁njĩĩra": 6523,
      "▁Samaria.": 6524,
      "tungatĩ": 6525,
      "muonire": 6526,
      "▁Gibeoni": 6527,
      "▁Akohathu": 6528,
      "▁maatarirwo": 6529,
      "▁ũiguano.": 6530,
      "▁Hema-ya-Gũtũnganwo.": 6531,
      "▁ekũmũhe": 6532,
      "▁Gomo": 6533,
      "hooreri": 6534,
      "▁ironda": 6535,
      "mbararia": 6536,
      "▁handũ-harĩa-haamũre,": 6537,
      "▁nĩgĩka": 6538,
      "▁Shusha": 6539,
      "▁Zebuluni": 6540,
      "▁Judea": 6541,
      "▁Isakaru": 6542,
      "▁Ithandũkũ": 6543,
      "ngumania": 6544,
      "▁mairigĩre": 6545,
      "rutũrũra": 6546,
      "▁Bethi-Sheme": 6547,
      "▁Mũgambo": 6548,
      "▁marurumĩ": 6549,
      "▁icua": 6550,
      "▁Senakeribu": 6551,
      "-tho": 6552,
      "AR": 6553,
      "igĩra": 6554,
      "iye": 6555,
      "ĩkĩre": 6556,
      "▁;": 6557,
      "rĩĩ": 6558,
      "▁aru": 6559,
      "▁amenye": 6560,
      "▁atige": 6561,
      "▁natuo": 6562,
      "▁ũtiga": 6563,
      "▁ũnini": 6564,
      "▁ũthiiaga": 6565,
      "▁ũthondeke": 6566,
      "▁ũheaga": 6567,
      "gĩũka": 6568,
      "▁wagĩrĩirwo": 6569,
      "▁nĩee": 6570,
      "▁mũto": 6571,
      "▁mũũraga": 6572,
      "ka;\n": 6573,
      "▁Nyo": 6574,
      "ree": 6575,
      "kĩĩ": 6576,
      "nagĩrĩra": 6577,
      "ĩrĩrie": 6578,
      "hagwo": 6579,
      "hana,": 6580,
      "▁Mbũ": 6581,
      "▁kũha": 6582,
      "▁kũingata": 6583,
      "▁kũniinwo": 6584,
      "teithagia": 6585,
      "neli": 6586,
      "inĩra": 6587,
      "thi,\n": 6588,
      "▁kĩingĩ": 6589,
      "▁Athe": 6590,
      "gogo": 6591,
      "▁ĩkũ": 6592,
      "mũrĩirwo": 6593,
      "-inĩ-rĩ,": 6594,
      "mbwo": 6595,
      "thĩtwo": 6596,
      "▁akĩinũka": 6597,
      "gere": 6598,
      "▁Irĩ": 6599,
      "▁Igai": 6600,
      "▁Nĩgũ": 6601,
      "arĩĩaga": 6602,
      "▁Mũgũnda": 6603,
      "▁Mũirĩtu": 6604,
      "▁mbwe": 6605,
      "hunji": 6606,
      "gi,": 6607,
      "gita": 6608,
      "girwo": 6609,
      "▁Tuĩ": 6610,
      "▁enda": 6611,
      "▁makĩigua": 6612,
      "▁maarutaga": 6613,
      "▁maathiire": 6614,
      "▁mendaga": 6615,
      "▁ndagũthaitha": 6616,
      "▁maikara": 6617,
      "▁gakuo": 6618,
      "▁gacũmbĩrĩ": 6619,
      "inanga": 6620,
      "▁niĩ?": 6621,
      "kĩra\n": 6622,
      "carie": 6623,
      "▁ũguo!": 6624,
      "▁hamwe.\n": 6625,
      "kĩrĩria,": 6626,
      "mĩrĩre": 6627,
      "mĩrĩrie": 6628,
      "▁Mwaki": 6629,
      "▁Ogu": 6630,
      "▁80": 6631,
      "rĩrĩre": 6632,
      "gwĩtigĩra": 6633,
      "▁Jubili": 6634,
      "▁12;\n": 6635,
      "▁angĩ.": 6636,
      "▁Hada": 6637,
      "toorio": 6638,
      "▁wĩgiĩ": 6639,
      "▁tene!": 6640,
      "▁mothe,\n": 6641,
      "▁ngoro.\n": 6642,
      "tũũgĩrĩ": 6643,
      "▁akĩmũtwara": 6644,
      "▁Kanitha": 6645,
      "▁wee-rĩ,": 6646,
      "▁gũkũngũĩra": 6647,
      "honokania": 6648,
      "▁Gũcookia": 6649,
      "hooya\n": 6650,
      "▁ithagu": 6651,
      "▁hau.": 6652,
      "▁hekarũ.": 6653,
      "▁thita": 6654,
      "▁yakwa\n": 6655,
      "haandire": 6656,
      "▁makama": 6657,
      "rekerwo": 6658,
      "▁nguo\n": 6659,
      "▁nguo,": 6660,
      "▁irio\n": 6661,
      "▁nĩo\n": 6662,
      "▁mwene\n": 6663,
      "▁akaũ": 6664,
      "ndigi": 6665,
      "ũraga,": 6666,
      "▁ihinda\n": 6667,
      "▁thahabu,\n": 6668,
      "▁Tito": 6669,
      "▁Elikana": 6670,
      "▁ngai\n": 6671,
      "gĩrĩire.": 6672,
      "▁mũũke": 6673,
      "moora": 6674,
      "▁mangĩahotire": 6675,
      "▁ũkĩĩ": 6676,
      "▁aya\n": 6677,
      "kwo.": 6678,
      "▁magee": 6679,
      "▁magerio": 6680,
      "hereria": 6681,
      "▁gwĩka.": 6682,
      "▁Zefa": 6683,
      "rũrũke": 6684,
      "▁nĩagatũma": 6685,
      "▁nĩngũgũ": 6686,
      "▁Mĩhianano": 6687,
      "gwete": 6688,
      "▁igĩthiĩ": 6689,
      "▁ĩngĩ,": 6690,
      "▁guothe.": 6691,
      "▁nyone": 6692,
      "-ĩ,\n": 6693,
      "▁rĩakwa,\n": 6694,
      "▁Afilisti\n": 6695,
      "▁haamũre,": 6696,
      "▁mũtwe,": 6697,
      "▁mweri-inĩ": 6698,
      "▁nene,": 6699,
      "▁gĩtĩ-inĩ": 6700,
      "▁ciongo": 6701,
      "▁narua.": 6702,
      "humbĩire": 6703,
      "▁ngiri,": 6704,
      "▁ũrogĩa": 6705,
      "▁mahĩtia,": 6706,
      "▁njĩkĩte": 6707,
      "▁mathangũ": 6708,
      "hoteka": 6709,
      "▁Ashuri.": 6710,
      "▁Amaleki": 6711,
      "▁aikare": 6712,
      "▁gĩthimo": 6713,
      "▁ndakae": 6714,
      "▁Nĩũga": 6715,
      "▁ihooru,": 6716,
      "▁ihooru,\n": 6717,
      "▁mũhiki": 6718,
      "▁ũgeni": 6719,
      "▁kĩratũma": 6720,
      "▁tĩĩri-inĩ": 6721,
      "▁Zekaria,": 6722,
      "cookanĩrĩrie": 6723,
      "▁Ashido": 6724,
      "yoneire": 6725,
      "hũthagĩra": 6726,
      "▁kĩgera,": 6727,
      "▁gũthũngũ": 6728,
      "▁agĩturumithia": 6729,
      "▁Shemaia": 6730,
      "▁wagũĩrĩire": 6731,
      "▁Aperi": 6732,
      "▁kwĩyendera": 6733,
      "▁Giligali": 6734,
      "▁Muoyo": 6735,
      "▁Adonija": 6736,
      "rũmbũyagia": 6737,
      "▁mĩtego": 6738,
      "▁Jezebeli": 6739,
      "akire": 6740,
      "cĩra": 6741,
      "ehera": 6742,
      "igwo": 6743,
      "ica": 6744,
      "lo,": 6745,
      "nwa": 6746,
      "umbĩ": 6747,
      "ĩkaga": 6748,
      "▁ne": 6749,
      "▁ame": 6750,
      "▁aheo": 6751,
      "▁ũtwĩ": 6752,
      "▁ũrutaga": 6753,
      "▁ũkwenda": 6754,
      "▁ũigue": 6755,
      "▁mathe": 6756,
      "▁magai": 6757,
      "▁mahi": 6758,
      "▁marũgamĩte": 6759,
      "ramu,": 6760,
      "ragio": 6761,
      "ringi": 6762,
      "▁wakũ": 6763,
      "▁nĩĩrĩ": 6764,
      "▁nĩnj": 6765,
      "▁nĩĩra": 6766,
      "▁mũri": 6767,
      "▁mũguĩ": 6768,
      "kabu": 6769,
      "▁iru": 6770,
      "▁igaatuĩka": 6771,
      "tahĩtwo": 6772,
      "nagio": 6773,
      "thege": 6774,
      "hanĩria": 6775,
      "▁kũmwa": 6776,
      "▁kũgooca": 6777,
      "tere": 6778,
      "teithio": 6779,
      "nio,": 6780,
      "▁yaa": 6781,
      "thi.": 6782,
      "thirwo": 6783,
      "▁Atĩ": 6784,
      "▁Atongoria": 6785,
      "korirwo": 6786,
      "▁rĩrutĩirwo": 6787,
      "hei": 6788,
      "▁gũkua.": 6789,
      "▁gũcookereria": 6790,
      "▁akĩmenya": 6791,
      "▁akĩringa": 6792,
      "kũma": 6793,
      "kũmi": 6794,
      "▁hatũũgĩ": 6795,
      "▁Nabothu": 6796,
      "▁Nĩn": 6797,
      "ũragia": 6798,
      "▁mĩmera": 6799,
      "▁kao": 6800,
      "arĩtie": 6801,
      "▁Mũma": 6802,
      "▁Mũlawii": 6803,
      "hĩĩ,": 6804,
      "▁Kũũ": 6805,
      "▁Ngai;\n": 6806,
      "thamakaga": 6807,
      "▁agĩa": 6808,
      "▁Tiri": 6809,
      "▁tũge": 6810,
      "▁tũtia": 6811,
      "▁makĩara": 6812,
      "▁makĩgĩa": 6813,
      "▁makĩrĩra": 6814,
      "thof": 6815,
      "▁Maarĩkia": 6816,
      "▁aaiguire": 6817,
      "▁nĩatuĩte": 6818,
      "▁nĩakuĩte": 6819,
      "▁mehumbĩte": 6820,
      "▁ndana": 6821,
      "▁mweke": 6822,
      "baba": 6823,
      "batara": 6824,
      "▁rwake,": 6825,
      "▁magĩte": 6826,
      "▁iria.": 6827,
      "▁maigana": 6828,
      "▁kwananga": 6829,
      "▁ndũũ": 6830,
      "igagwo": 6831,
      "▁hamwe.": 6832,
      "▁ngoriai": 6833,
      "cookerie": 6834,
      "kĩrĩire": 6835,
      "▁ndĩmwĩ": 6836,
      "▁ũũrĩa": 6837,
      "▁78": 6838,
      "▁hin": 6839,
      "▁hini": 6840,
      "tuĩka\n": 6841,
      "rĩrĩrie": 6842,
      "gwĩciiria": 6843,
      "aga,": 6844,
      "▁hee": 6845,
      "ũka,": 6846,
      "▁ũyũ,\n": 6847,
      "▁mothe-rĩ,": 6848,
      "▁ngoro.": 6849,
      "▁ngĩcooka": 6850,
      "▁yake;\n": 6851,
      "▁wanyu;": 6852,
      "▁itheru": 6853,
      "▁ita\n": 6854,
      "iguagĩra": 6855,
      "▁njĩra\n": 6856,
      "▁Gũtũnganwo": 6857,
      "▁Heri": 6858,
      "rishoni": 6859,
      "rũgama,": 6860,
      "▁yakwa;\n": 6861,
      "▁mehia\n": 6862,
      "▁mwene,\n": 6863,
      "▁matige": 6864,
      "mwĩka": 6865,
      "▁ũtaarĩ": 6866,
      "▁meekaga": 6867,
      "▁ndaamũ": 6868,
      "▁ciarĩo": 6869,
      "▁maguta\n": 6870,
      "▁Saũlũ\n": 6871,
      "▁atĩa?\n": 6872,
      "rigiica": 6873,
      "▁Gata": 6874,
      "▁Meny": 6875,
      "▁makoma": 6876,
      "▁Cumbĩ": 6877,
      "▁aingĩ.": 6878,
      "▁ũrĩkũ?": 6879,
      "▁ũkaama": 6880,
      "▁igana,": 6881,
      ":30": 6882,
      "▁nyingĩ.": 6883,
      "▁ũtukũ,\n": 6884,
      "▁mũtĩ-inĩ": 6885,
      "▁Ahithof": 6886,
      "▁ũthingu.\n": 6887,
      "▁ĩna.": 6888,
      "▁nĩmekũ": 6889,
      "▁nguuga": 6890,
      "▁inĩ,": 6891,
      "▁rĩrĩkũ": 6892,
      "▁igĩrĩ.": 6893,
      "▁Uri": 6894,
      "▁Laza": 6895,
      "▁ihiga,": 6896,
      "▁rĩaku,\n": 6897,
      "▁tũhũ,\n": 6898,
      "▁matũire": 6899,
      "▁gũtariĩ": 6900,
      "menyerete": 6901,
      "▁makũnia": 6902,
      "▁kũũrĩa": 6903,
      "▁tuu": 6904,
      "▁ndoigire": 6905,
      "hie,": 6906,
      "thira-rĩ,": 6907,
      "▁nĩndĩra": 6908,
      "▁Hezekia,": 6909,
      "▁Amasa": 6910,
      "▁haaro-ĩ!": 6911,
      "ririkanaga": 6912,
      "▁njeera,": 6913,
      "imagara": 6914,
      "▁mĩnyamaro-inĩ": 6915,
      "▁kahĩĩ.": 6916,
      "thugundĩ": 6917,
      "▁maandĩko-inĩ": 6918,
      "hutatĩra": 6919,
      "▁Thoguo": 6920,
      "▁marigĩrĩrio": 6921,
      "▁Ameni": 6922,
      "▁muume": 6923,
      "▁Ngaatho": 6924,
      "▁Jehoashu": 6925,
      "▁Jehoahazu": 6926,
      "▁ooragwo.": 6927,
      "▁Zeruia": 6928,
      "▁mũhihano": 6929,
      "▁mũrũaru": 6930,
      "▁mwandĩki-ma": 6931,
      "▁maatũmĩtwo": 6932,
      "▁Ajebusi": 6933,
      "▁Hilikia": 6934,
      "▁athambie": 6935,
      "▁Tarishi": 6936,
      "▁thwariga": 6937,
      "▁ũũra-tho": 6938,
      "▁barabara": 6939,
      ",4": 6940,
      "amu,": 6941,
      "ambĩrĩria": 6942,
      "oni.": 6943,
      "ua": 6944,
      "umaga": 6945,
      "ŨA": 6946,
      "▁go": 6947,
      "▁tuĩka": 6948,
      "▁aha": 6949,
      "▁ahi": 6950,
      "▁atii": 6951,
      "▁atheru,": 6952,
      "▁ũhoo": 6953,
      "▁ũiyũrĩte": 6954,
      "▁ma,\n": 6955,
      "▁mani": 6956,
      "▁manj": 6957,
      "▁mabundi": 6958,
      "rithio": 6959,
      "ricũ": 6960,
      "rithie": 6961,
      "rirĩirie": 6962,
      "ndiri": 6963,
      "▁wandĩkĩtwo": 6964,
      "▁waheire": 6965,
      "▁mũigua": 6966,
      "▁mũkinyanĩ": 6967,
      "kai,": 6968,
      "yaga": 6969,
      "rehaga": 6970,
      "▁iha": 6971,
      "▁ito": 6972,
      "▁ituamba": 6973,
      "tagia": 6974,
      "tũrĩ": 6975,
      "honie": 6976,
      "therio": 6977,
      "▁kũũrĩ": 6978,
      "▁kũrũma": 6979,
      "ro.\n": 6980,
      "tigire": 6981,
      "▁yaguo": 6982,
      "▁Jethe": 6983,
      "ku.": 6984,
      "▁Athuuri": 6985,
      "▁Agiri": 6986,
      "▁Atumia": 6987,
      "koi": 6988,
      "korere": 6989,
      "▁ĩiyũrĩtio": 6990,
      "thĩria": 6991,
      "▁gũi": 6992,
      "▁gũkua,": 6993,
      "▁gũcaria": 6994,
      "▁gũcinĩra": 6995,
      "▁akĩrĩa": 6996,
      "▁akĩrũmĩrĩra": 6997,
      "▁akĩrakara": 6998,
      "▁Jehova?": 6999,
      "nyĩte": 7000,
      "gaitũ": 7001,
      "gega": 7002,
      "▁Ithama": 7003,
      "mene": 7004,
      "▁Nĩnde": 7005,
      "▁mĩhĩndo": 7006,
      "▁kayo": 7007,
      "▁kahĩĩ,": 7008,
      "▁Mũtongoria": 7009,
      "▁Mũhaka": 7010,
      "muri": 7011,
      "munya": 7012,
      "muoya": 7013,
      "▁Ngai?": 7014,
      "▁agĩkua.": 7015,
      "ndaka": 7016,
      "▁Hwaĩ": 7017,
      "▁tũtu": 7018,
      "▁ngwenda": 7019,
      "nyuĩra": 7020,
      "▁Maithe": 7021,
      "▁aatũũraga": 7022,
      "▁nĩakũ": 7023,
      "▁nĩatũmire": 7024,
      "nĩirwo": 7025,
      "▁Sera": 7026,
      "gwatha": 7027,
      "twarĩre": 7028,
      "▁Ũra": 7029,
      "▁nĩguo,": 7030,
      "rutanaga": 7031,
      "rutanĩrie": 7032,
      "ba.": 7033,
      "▁rwaro-inĩ": 7034,
      "▁magĩaka": 7035,
      "riũkio": 7036,
      "riũkirie": 7037,
      "thanio": 7038,
      "▁woiga": 7039,
      "▁Eno": 7040,
      "▁othe,\n": 7041,
      "▁marĩo": 7042,
      "cookagĩria": 7043,
      "thũngũ": 7044,
      "▁ũngĩmũ": 7045,
      "▁inyii": 7046,
      "▁wakwa-rĩ,": 7047,
      "mĩrĩire": 7048,
      "▁One": 7049,
      "▁Johana,": 7050,
      "▁10,000": 7051,
      "▁nduma,": 7052,
      "▁110": 7053,
      "▁Hari": 7054,
      "▁nyii": 7055,
      "▁wĩre": 7056,
      "▁muoyo\n": 7057,
      "▁muoyo;\n": 7058,
      "▁Mwathani,\n": 7059,
      "▁tene\n": 7060,
      "kire.\n": 7061,
      "-Nyamũre": 7062,
      "hingie": 7063,
      "onania": 7064,
      "▁ndiũĩ": 7065,
      "▁gatani,": 7066,
      "▁wee,": 7067,
      "▁nyarĩrĩ": 7068,
      "▁itaa": 7069,
      "▁itara": 7070,
      "▁nĩũko": 7071,
      "heenie": 7072,
      "hooya,": 7073,
      "▁ngũmũ": 7074,
      "▁ngũkwĩra": 7075,
      "▁mataarĩ": 7076,
      "▁magaci": 7077,
      "▁(3": 7078,
      "▁(nĩ": 7079,
      "wĩrĩire": 7080,
      "▁ciaku\n": 7081,
      "00,": 7082,
      "▁mbũri,": 7083,
      "▁ingĩkorwo": 7084,
      "▁ĩmwe.": 7085,
      "▁meerĩ,": 7086,
      "▁nayo.": 7087,
      "rũmĩrĩre": 7088,
      "▁manyu\n": 7089,
      "▁ruumĩte": 7090,
      "▁agathiĩ": 7091,
      "▁Ndawa": 7092,
      "coro": 7093,
      "▁akwa.": 7094,
      "▁kĩgongona.": 7095,
      "▁Nĩngakũ": 7096,
      "▁nĩagakũ": 7097,
      "▁Agĩthiĩ": 7098,
      "▁matu-inĩ": 7099,
      "▁Mĩgate": 7100,
      "ingatithia": 7101,
      "kuue": 7102,
      "kuuma": 7103,
      "thaamĩ": 7104,
      "▁Sila": 7105,
      "▁akome": 7106,
      "▁Thakame": 7107,
      "conoka": 7108,
      "▁ngui": 7109,
      ":41": 7110,
      "▁njono": 7111,
      "▁Ndũkane": 7112,
      "▁rĩaku.": 7113,
      "▁ene.": 7114,
      "▁gũtambũrũ": 7115,
      "▁mũthiithũ": 7116,
      "▁wayo.\n": 7117,
      "▁rũrĩrĩmbĩ": 7118,
      "neanire": 7119,
      "▁nduma,\n": 7120,
      "▁ndumanu": 7121,
      "▁gwakwa,": 7122,
      "▁itika": 7123,
      "▁ũmenyo,\n": 7124,
      "▁kũigĩrĩra": 7125,
      "▁mĩthabibũ,": 7126,
      "▁njiarwa.\n": 7127,
      "▁mũtikane": 7128,
      "▁keerĩ.": 7129,
      "▁bururu": 7130,
      "haici": 7131,
      "tungatĩre": 7132,
      "cinĩre": 7133,
      "▁gwĩtĩkia-rĩ,": 7134,
      "▁njerũ,": 7135,
      "ciirithia": 7136,
      "▁ithũĩro.\n": 7137,
      "ciirĩtie": 7138,
      "▁Kwaga": 7139,
      "▁aitũ,": 7140,
      "hũndũka": 7141,
      "thereraga": 7142,
      "▁aakuire,": 7143,
      "▁mũici": 7144,
      "▁nũmu": 7145,
      "thĩrĩirio": 7146,
      "njookeria": 7147,
      "▁Mizipa": 7148,
      "▁ũndeithie": 7149,
      "▁gĩtina-inĩ": 7150,
      "▁athuuri,": 7151,
      "▁Ciira\n": 7152,
      "▁Tamaru": 7153,
      "▁Abiatharu": 7154,
      "▁Jabeshi": 7155,
      "▁Naamani": 7156,
      "▁Maliki": 7157,
      "-A": 7158,
      "-S": 7159,
      ":o": 7160,
      "I\n": 7161,
      "are": 7162,
      "gwĩra": 7163,
      "ithĩtio": 7164,
      "sia,": 7165,
      "ziri": 7166,
      "ŨRĨ": 7167,
      "▁gaitũ": 7168,
      "▁agai": 7169,
      "▁athĩnjĩri-ngai": 7170,
      "▁abarũthi": 7171,
      "▁ũtũmĩte": 7172,
      "▁ũtooĩ": 7173,
      "▁ũkinye": 7174,
      "▁mathũ": 7175,
      "gamĩrĩra": 7176,
      "ndere": 7177,
      "ingatĩ": 7178,
      "▁mũtin": 7179,
      "▁mũitĩrĩrie": 7180,
      "kanda": 7181,
      "remera": 7182,
      "▁itonga": 7183,
      "▁ihinga": 7184,
      "taarĩria": 7185,
      "maũndũ": 7186,
      "manu": 7187,
      "thagio": 7188,
      "hothi": 7189,
      "▁ciikaro": 7190,
      "▁o.": 7191,
      "▁kũigu": 7192,
      "▁kũruma": 7193,
      "▁kũnyua,": 7194,
      "rothu": 7195,
      "te.\n": 7196,
      "tirwo": 7197,
      "tirie": 7198,
      "niinire": 7199,
      "▁ciamo": 7200,
      "nekaga": 7201,
      "inĩre": 7202,
      "thirio": 7203,
      "kushi": 7204,
      "go,": 7205,
      "gondu": 7206,
      "▁rĩra": 7207,
      "▁rĩtarĩ": 7208,
      "▁rĩega": 7209,
      "▁ĩmũ": 7210,
      "guoyo": 7211,
      "▁gũga": 7212,
      "▁gũko": 7213,
      "▁akĩrora": 7214,
      "▁hakwa": 7215,
      "▁gĩgaakorwo": 7216,
      "▁gĩikaro-inĩ": 7217,
      "▁Iruta": 7218,
      "▁Nĩtwa": 7219,
      "▁mĩkũyũ": 7220,
      "▁ka\n": 7221,
      "▁kaa": 7222,
      "▁karũũĩ": 7223,
      "arĩrie": 7224,
      "▁Mũna": 7225,
      "▁Mũgi": 7226,
      "ngagĩra": 7227,
      "▁agĩgĩ": 7228,
      "▁agĩikũrũ": 7229,
      "nyamũ": 7230,
      "buĩ": 7231,
      "▁tũte": 7232,
      "▁makĩringa": 7233,
      "▁maathi": 7234,
      "▁maamũre": 7235,
      "▁maakinya": 7236,
      "▁Magaa": 7237,
      "▁Maruta": 7238,
      "▁aakinyia": 7239,
      "▁nĩagooka": 7240,
      "▁4:": 7241,
      "▁atĩa,": 7242,
      "▁mwako": 7243,
      "twarithia": 7244,
      "▁Ũteithio": 7245,
      "▁No-o": 7246,
      "neneha": 7247,
      "▁Bu": 7248,
      "▁Bere": 7249,
      "▁gĩacio": 7250,
      "▁rwanyu": 7251,
      "▁magĩikũrũka": 7252,
      "hũa": 7253,
      "hũgũra": 7254,
      "araho": 7255,
      "▁kwage": 7256,
      "▁Wũ": 7257,
      "▁Ebe": 7258,
      "▁Edomu,": 7259,
      "▁arĩhe": 7260,
      "▁Di": 7261,
      "cookete": 7262,
      "hia,": 7263,
      "▁hinga": 7264,
      "▁angĩhota": 7265,
      "▁wakuo": 7266,
      "▁Hatirĩ": 7267,
      "▁ũyũ:": 7268,
      "▁Bari": 7269,
      "▁wĩya": 7270,
      "▁indo,": 7271,
      "hingi": 7272,
      "tũũga": 7273,
      "nyiiha": 7274,
      "▁Po": 7275,
      "kanaga": 7276,
      "▁Ndarĩ": 7277,
      "▁wĩra.": 7278,
      "kĩoneka": 7279,
      "▁Kũgooca": 7280,
      "▁yothe\n": 7281,
      "rũgamaga": 7282,
      "▁thiithi": 7283,
      "▁rĩngĩ;\n": 7284,
      "▁magacooka": 7285,
      "▁moko\n": 7286,
      "▁irio.\n": 7287,
      "▁kwĩhinga": 7288,
      "▁ciana.": 7289,
      "▁mao\n": 7290,
      "▁rĩĩtwa\n": 7291,
      "▁akamĩ": 7292,
      "▁gũtirĩ\n": 7293,
      "▁ndũrĩrĩ.\n": 7294,
      "ithagio": 7295,
      "ithagie": 7296,
      "▁mooragwo": 7297,
      "▁kĩĩ?": 7298,
      "-Ho": 7299,
      "▁rĩake,\n": 7300,
      "▁Jakubu\n": 7301,
      "▁mũtiigana": 7302,
      "▁makĩmũrũmĩrĩ": 7303,
      "▁Eliza": 7304,
      "▁ciarĩ:\n": 7305,
      "▁thakame\n": 7306,
      "rigici": 7307,
      "▁gũkĩra\n": 7308,
      "▁mũthĩnjĩri-Ngai.": 7309,
      "▁barigici": 7310,
      "▁Cooke": 7311,
      "▁ũkoiga": 7312,
      "▁Zeba": 7313,
      "▁nĩagatuĩka": 7314,
      "▁Abishai": 7315,
      "▁atana": 7316,
      "▁mwathi\n": 7317,
      "▁gĩake,\n": 7318,
      "hũũrana": 7319,
      "▁ituri-inĩ": 7320,
      "▁maya,": 7321,
      "menyeke": 7322,
      "▁eerĩ\n": 7323,
      "iki,": 7324,
      "-Me": 7325,
      "▁mũkĩĩ": 7326,
      "▁Rũhiũ": 7327,
      "▁ndegwa,": 7328,
      "▁Iburahĩmu.": 7329,
      "▁narua,": 7330,
      "▁gĩkuũ,\n": 7331,
      "▁gũtaũkĩrwo": 7332,
      "▁ndonire": 7333,
      "nete.": 7334,
      "tongoretie": 7335,
      "▁nĩrĩga": 7336,
      "▁hwaĩ-inĩ,": 7337,
      "hĩtaga": 7338,
      "▁gĩthima-inĩ": 7339,
      "▁gwĩtigĩra.": 7340,
      "▁Jonathani,": 7341,
      "▁igweta,": 7342,
      "muoha": 7343,
      "▁kĩonereria": 7344,
      "▁Suko": 7345,
      "du,": 7346,
      "▁mũhikania": 7347,
      "▁nĩikaa": 7348,
      "▁wacio,": 7349,
      "▁makĩĩrana": 7350,
      "ni-maũndũ": 7351,
      "rekereirie": 7352,
      "cemanie": 7353,
      "▁ndũgacooka": 7354,
      "taũrwo": 7355,
      "▁Jeriko,": 7356,
      "▁Adamu": 7357,
      "▁mĩthiringo": 7358,
      "hurunjũ": 7359,
      "yonera": 7360,
      "▁Lawi,": 7361,
      "▁gũcaaya": 7362,
      "▁kaũũgũ.": 7363,
      "▁ethambe": 7364,
      "▁Mwanangĩko": 7365,
      "▁Kaisare": 7366,
      "▁Werũ-inĩ": 7367,
      "▁Midiani": 7368,
      "▁irima-inĩ": 7369,
      "▁etĩĩi": 7370,
      "gerekania": 7371,
      "guũranĩrio": 7372,
      "▁Jothamu": 7373,
      "korerera": 7374,
      "▁kũnyararwo": 7375,
      "▁Hagari": 7376,
      "▁ahũtu": 7377,
      "▁Hiramu": 7378,
      "▁goro,": 7379,
      ",6": 7380,
      "-R": 7381,
      "Ma": 7382,
      "cere": 7383,
      "ezeri": 7384,
      "kini": 7385,
      "leli": 7386,
      "ũrie": 7387,
      "▁ano": 7388,
      "▁amwĩ": 7389,
      "▁ũme": 7390,
      "▁ũtua": 7391,
      "▁ũmwĩ": 7392,
      "▁ũkoragwo": 7393,
      "garaga": 7394,
      "rirũ,": 7395,
      "▁warutire": 7396,
      "▁mũtoonye": 7397,
      "▁mũrutani": 7398,
      "▁mũraihu": 7399,
      "▁mũgũtũũra": 7400,
      "ka-rĩ,": 7401,
      "▁Nga": 7402,
      "remi": 7403,
      "rehithia": 7404,
      "tamaiyũ": 7405,
      "ke;\n": 7406,
      "nani,": 7407,
      "tũra": 7408,
      "tha,\n": 7409,
      "hora": 7410,
      "▁oigaga": 7411,
      "hara": 7412,
      "hage": 7413,
      "hanĩtio": 7414,
      "▁kũru": 7415,
      "▁kũnja": 7416,
      "▁kũnyiita": 7417,
      "▁kũhurũ": 7418,
      "▁kũraka": 7419,
      "▁kũgũra": 7420,
      "▁kũrua": 7421,
      "rorete": 7422,
      "teith": 7423,
      "tika": 7424,
      "▁Jeko": 7425,
      "ku.\n": 7426,
      "▁kĩguũ": 7427,
      "▁Am": 7428,
      "▁Are": 7429,
      "ko,": 7430,
      "▁ĩigana": 7431,
      "▁ĩĩ,": 7432,
      "mbũkaga": 7433,
      "thĩte,": 7434,
      "▁gũtĩĩ": 7435,
      "▁gũcakaya": 7436,
      "▁akĩmoo": 7437,
      "▁hatheru": 7438,
      "▁Inĩrai": 7439,
      "▁Nĩo": 7440,
      "▁mĩkanda": 7441,
      "▁mĩaraho": 7442,
      "▁kahiga": 7443,
      "▁rĩao,": 7444,
      "▁Mũrutani": 7445,
      "▁Mũkũũ": 7446,
      "▁mbĩrĩ": 7447,
      "▁agĩkorwo": 7448,
      "▁agĩgatua": 7449,
      "gitĩre": 7450,
      "githie": 7451,
      "▁Thu": 7452,
      "▁Tara": 7453,
      "mbatĩ": 7454,
      "▁rũhonge": 7455,
      "ndai": 7456,
      "▁makĩrũmĩrĩra": 7457,
      "▁maage": 7458,
      "▁maatariĩ": 7459,
      "▁Mawatho": 7460,
      "▁aarutire": 7461,
      "▁aaheire": 7462,
      "▁kĩang": 7463,
      "▁menya": 7464,
      "▁mendete": 7465,
      "▁Isiraeli;": 7466,
      "▁mwandĩke": 7467,
      "▁Ũhonokio": 7468,
      "▁bũrũri-inĩ,\n": 7469,
      "▁mwenda": 7470,
      "▁magĩtũ": 7471,
      "▁magĩũkĩra": 7472,
      "▁gagĩ": 7473,
      "ina,": 7474,
      "inadabu": 7475,
      "▁kwaria,": 7476,
      "▁Egi": 7477,
      "▁nĩmagĩte": 7478,
      "▁wake;": 7479,
      "▁wake;\n": 7480,
      "▁marĩe": 7481,
      "iganu": 7482,
      "▁mona": 7483,
      "▁6:": 7484,
      "▁ngombo,": 7485,
      "cookera": 7486,
      "kĩrĩrie": 7487,
      "▁ũngĩgwata": 7488,
      "▁76": 7489,
      "▁Of": 7490,
      "▁89": 7491,
      "▁Josia,": 7492,
      "▁nao,\n": 7493,
      "▁9:": 7494,
      "▁gwaku,": 7495,
      "▁ũyũ?": 7496,
      "raga.": 7497,
      "onanagia": 7498,
      "▁ngĩmwĩra": 7499,
      "▁gwĩkaga": 7500,
      "▁wanyu-rĩ,": 7501,
      "▁Juda?": 7502,
      "▁Zaka": 7503,
      "▁gatano": 7504,
      "kanagia": 7505,
      "rire.\n": 7506,
      "▁Kaini": 7507,
      "▁Karũgamo": 7508,
      "gooka,": 7509,
      "▁mũrĩo": 7510,
      "▁gũkũ\n": 7511,
      "▁ita.": 7512,
      "▁eerirwo": 7513,
      "▁ĩtanĩtio": 7514,
      "▁ikũnia": 7515,
      "▁Kũgwatwo": 7516,
      "▁yaku;\n": 7517,
      "▁njĩra-inĩ,": 7518,
      "▁ngũũra": 7519,
      "kinya.": 7520,
      "▁akiuga\n": 7521,
      "▁akiugaga": 7522,
      "▁matahĩtwo": 7523,
      "▁akue": 7524,
      "▁maithori": 7525,
      "▁kwĩyamũ": 7526,
      "▁kwĩhoka": 7527,
      "rai,": 7528,
      "▁anene\n": 7529,
      "▁gatagatĩ\n": 7530,
      "▁mooru,": 7531,
      "▁matũũra\n": 7532,
      "▁Mweri": 7533,
      "▁kũmũtũnga": 7534,
      "▁maraka": 7535,
      "▁nĩmũkũ": 7536,
      "▁Jakubu.\n": 7537,
      "tĩĩaga": 7538,
      "▁Elifa": 7539,
      "▁nayo\n": 7540,
      "▁nyina.": 7541,
      "▁manyu.\n": 7542,
      "▁ciira,\n": 7543,
      "▁cianyu\n": 7544,
      "▁harĩa\n": 7545,
      "thĩĩnia": 7546,
      "▁nyamũ\n": 7547,
      "hũũrire": 7548,
      "▁marutaga": 7549,
      "▁nawe.\n": 7550,
      "▁akwa\n": 7551,
      "▁Babuloni,\n": 7552,
      "▁Mesha": 7553,
      "▁moima": 7554,
      "▁Roho\n": 7555,
      "▁Tũngĩ": 7556,
      "▁kĩhooto.": 7557,
      "▁ũgĩthiĩ": 7558,
      "▁ciakwa.\n": 7559,
      "ingate": 7560,
      "▁ao.\n": 7561,
      "▁aroiga": 7562,
      "cuukĩra": 7563,
      "▁ũtukũ.\n": 7564,
      "▁makaamũ": 7565,
      "▁Ahika": 7566,
      "▁eerĩ.": 7567,
      "▁nĩtũrĩ": 7568,
      "▁Johanani": 7569,
      "▁mbarathi\n": 7570,
      "▁gĩkuũ.\n": 7571,
      "▁nĩndamũ": 7572,
      "▁Hema-ya": 7573,
      "▁Gehazi": 7574,
      "▁higĩ": 7575,
      "▁kĩnene,": 7576,
      "▁irathĩro.": 7577,
      "▁gĩthaka-inĩ": 7578,
      "▁ndũkae": 7579,
      "▁Zayuni\n": 7580,
      "▁mĩena-inĩ": 7581,
      "▁agereire": 7582,
      "▁Asahe": 7583,
      "▁Kohathu": 7584,
      "▁gĩtanda": 7585,
      "▁kĩeha,": 7586,
      "▁mũnini,": 7587,
      "▁Ruta": 7588,
      "▁kilomita": 7589,
      "▁meerĩ.": 7590,
      "▁Peka": 7591,
      "gayania": 7592,
      "ndwara": 7593,
      "▁kwagĩrĩire.": 7594,
      "▁magĩĩtigĩra": 7595,
      "thiũrũrũkĩirie,": 7596,
      "▁Keila": 7597,
      "▁ihenya,": 7598,
      "▁nyamũre.": 7599,
      "▁mũtarakwa": 7600,
      "nyũrũria": 7601,
      "▁rũgendo-inĩ": 7602,
      "ndĩkirwo": 7603,
      "-Mũno,": 7604,
      "▁gũtũũgĩru,": 7605,
      "▁Bethi-A": 7606,
      "▁ndingĩhota": 7607,
      "▁tũnua-inĩ": 7608,
      "▁Shekemu,": 7609,
      "▁Anatho": 7610,
      "▁Mũrĩmo": 7611,
      "▁kũrũmia": 7612,
      "▁yetagwo": 7613,
      "▁Ririkanai": 7614,
      "kunyanĩra": 7615,
      "▁Ikaragai": 7616,
      "gaikarĩra": 7617,
      "▁koine-inĩ": 7618,
      "▁irengeeri": 7619,
      "▁twĩrĩ,": 7620,
      "▁rĩĩhia": 7621,
      "▁Akishi": 7622,
      "▁agĩkua.\n": 7623,
      "ithanie": 7624,
      "aragĩriai": 7625,
      "▁cingĩ": 7626,
      "▁maatigaire": 7627,
      "▁Aamaleki": 7628,
      "▁mũcukani": 7629,
      "▁eeranĩire": 7630,
      "haandwo": 7631,
      "▁Obadia": 7632,
      "▁mũkĩra-inĩ": 7633,
      "▁Obedi-E": 7634,
      "▁Ashidodi": 7635,
      "▁makomamanga": 7636,
      "▁maniũrũ": 7637,
      "-ũ": 7638,
      "ake": 7639,
      "igĩrĩire": 7640,
      "igĩtwo": 7641,
      "nũka": 7642,
      "oni\n": 7643,
      "uaga": 7644,
      "▁cooka": 7645,
      "▁theru,": 7646,
      "▁ni": 7647,
      "▁ngĩrĩ": 7648,
      "rĩĩo": 7649,
      "▁ahota": 7650,
      "▁ũkiu": 7651,
      "▁ũikũrũ": 7652,
      "▁maina": 7653,
      "▁magwĩ": 7654,
      "▁matua": 7655,
      "▁mana,": 7656,
      "▁manyiitwo": 7657,
      "▁maciira": 7658,
      "gĩaga": 7659,
      "▁watha": 7660,
      "▁wakinya,": 7661,
      "▁nĩmwe": 7662,
      "▁nĩnyonete": 7663,
      "ciirie": 7664,
      "▁mũtĩĩ": 7665,
      "▁mũtongo": 7666,
      "kanĩra": 7667,
      "kania,": 7668,
      "▁Ngi": 7669,
      "▁igu": 7670,
      "kĩrie": 7671,
      "tasha": 7672,
      "maniina": 7673,
      "nai": 7674,
      "gũire": 7675,
      "gũkaĩra": 7676,
      "▁Mwĩrĩ": 7677,
      "▁kũmoo": 7678,
      "▁kũrakara": 7679,
      "▁kũherithio": 7680,
      "▁kũminjaminjĩria": 7681,
      "▁1,000": 7682,
      "guũria": 7683,
      "roro": 7684,
      "rorere": 7685,
      "terere": 7686,
      "▁yakinyĩrĩire": 7687,
      "thira.": 7688,
      "▁kĩgu": 7689,
      "▁kĩmũ": 7690,
      "▁kĩirigo": 7691,
      "▁Akorwo": 7692,
      "▁Asi": 7693,
      "kooragwo": 7694,
      "▁ĩtu": 7695,
      "▁ĩkorwo": 7696,
      "hete": 7697,
      "heirie": 7698,
      "thĩnj": 7699,
      "thĩgi": 7700,
      "▁gũũkĩrĩ": 7701,
      "▁gũthamaka": 7702,
      "▁akĩrĩra": 7703,
      "▁akĩheana": 7704,
      "▁Jehova?\n": 7705,
      "▁gĩthingithia": 7706,
      "▁Naruo": 7707,
      "gemetio": 7708,
      "▁ũcio?": 7709,
      "▁Ithũ": 7710,
      "arĩrĩ": 7711,
      "▁rĩao.": 7712,
      "▁Mũigana": 7713,
      "hĩro": 7714,
      "hĩmbĩ": 7715,
      "▁mũndũ.\n": 7716,
      "▁Kũndũ": 7717,
      "▁Ngai!": 7718,
      "huhaga": 7719,
      "▁agĩkaĩra": 7720,
      "▁agĩthuura": 7721,
      "▁agĩcookereria": 7722,
      "▁agĩkĩrĩrĩria": 7723,
      "ingĩhia": 7724,
      "ndĩkĩire": 7725,
      "▁tũhe": 7726,
      "▁tũtũũre": 7727,
      "▁erekeire": 7728,
      "▁Riũ": 7729,
      "▁kũrĩĩ": 7730,
      "▁Matiga": 7731,
      "▁Marũa": 7732,
      "▁Marakara": 7733,
      "▁aaki": 7734,
      "▁aaririe": 7735,
      "▁aamũre,": 7736,
      "nĩire,": 7737,
      "▁Ste": 7738,
      "horoherio": 7739,
      "▁meny": 7740,
      "▁megũtũũra": 7741,
      "▁meciiragia": 7742,
      "twara\n": 7743,
      "▁kana,": 7744,
      "▁Ũthingu": 7745,
      "▁Ũtonga": 7746,
      "uĩtwo": 7747,
      "▁ndara": 7748,
      "▁thanju": 7749,
      "▁ũhoro-ũrĩa": 7750,
      "bali,": 7751,
      "kia.": 7752,
      "▁kwambĩrĩria": 7753,
      "▁Wo": 7754,
      "▁nyũmbũ": 7755,
      "▁Eheria": 7756,
      "▁nĩmakaa": 7757,
      "hoorera": 7758,
      "▁wake?": 7759,
      "▁mokĩte": 7760,
      "anangwo": 7761,
      "▁arĩe": 7762,
      "tie.": 7763,
      "▁thĩinĩ.\n": 7764,
      "leku,": 7765,
      "▁75": 7766,
      "▁77": 7767,
      "▁wakwa;": 7768,
      "▁mũno-rĩ,": 7769,
      "▁8:": 7770,
      "▁106": 7771,
      "▁120": 7772,
      "▁12:": 7773,
      "irie.": 7774,
      "▁144": 7775,
      "▁Hasha": 7776,
      "▁Hadadi": 7777,
      "▁Wee,": 7778,
      "▁Bathi": 7779,
      "▁kuo;\n": 7780,
      "▁wĩhagia": 7781,
      "▁tene?\n": 7782,
      "raga,": 7783,
      "ngera": 7784,
      "▁ithe.\n": 7785,
      "nyiihagia": 7786,
      "▁Zera": 7787,
      "▁Zimu": 7788,
      "▁ita,\n": 7789,
      "rongooria": 7790,
      "rũgamire": 7791,
      "▁kĩndũ,": 7792,
      "▁kĩndũ,\n": 7793,
      "▁arangĩ": 7794,
      "▁rĩngĩ\n": 7795,
      "▁mũgwanja-rĩ,": 7796,
      "▁kwĩnyiihia": 7797,
      "▁ũthamaki\n": 7798,
      "▁matigaire": 7799,
      "▁moori": 7800,
      "▁nacio.\n": 7801,
      "▁ũtaa": 7802,
      "mwatha": 7803,
      "▁Fe": 7804,
      "▁njiaro-inĩ": 7805,
      "▁thakame,\n": 7806,
      "gĩrĩire.\n": 7807,
      "▁ciira\n": 7808,
      "hũũnia": 7809,
      "▁mangĩa": 7810,
      "giririe": 7811,
      "▁Refa": 7812,
      "▁Taha": 7813,
      "rathimĩte": 7814,
      "▁moigire": 7815,
      "▁kĩrĩkanĩro\n": 7816,
      "▁Ciĩ": 7817,
      "▁ũkoima": 7818,
      "▁riiri.\n": 7819,
      "▁nĩagatua": 7820,
      "▁Abigai": 7821,
      "▁Mĩtamaiyũ": 7822,
      "ingatire": 7823,
      "▁Ayahudi\n": 7824,
      "▁Ayahudi.": 7825,
      "▁Mwene-Hinya-Wothe.\n": 7826,
      "▁Akĩmũ": 7827,
      "▁agĩĩkĩra": 7828,
      "▁mwega.\n": 7829,
      "▁Ahija": 7830,
      "▁Ahimeleku": 7831,
      "▁akoima": 7832,
      "▁akooragwo": 7833,
      "▁maingĩ.\n": 7834,
      "▁ũrata": 7835,
      "▁ngundi": 7836,
      "▁ici,": 7837,
      "▁angĩkorwo\n": 7838,
      "▁Rama": 7839,
      "mbũre": 7840,
      "▁Ndũkareke": 7841,
      "▁tũhũ;\n": 7842,
      "▁rũciinĩ,": 7843,
      "▁rũciinĩ,\n": 7844,
      "▁gũtaha": 7845,
      "▁Ayunani": 7846,
      "▁mũthiimo": 7847,
      "▁Moabi,\n": 7848,
      "▁ũtheri.\n": 7849,
      "▁Ndũga": 7850,
      "▁higo": 7851,
      "▁rũthingo-inĩ": 7852,
      "▁Kĩanda": 7853,
      "▁Baba.": 7854,
      "rigiicĩirio": 7855,
      "▁guoya.": 7856,
      "ngerereka": 7857,
      "▁ti-itherũ,": 7858,
      "tĩkĩrĩke": 7859,
      "▁athingu.\n": 7860,
      "▁athingu,\n": 7861,
      "▁mũthia,": 7862,
      "▁githĩ\n": 7863,
      "rũmagĩrĩre": 7864,
      "thira,\n": 7865,
      "▁mũgaakorwo": 7866,
      "▁mega.": 7867,
      "ingataga": 7868,
      "hurunjĩ": 7869,
      "▁hwaĩ-inĩ.\n": 7870,
      "▁maiguaga": 7871,
      "▁aikaria": 7872,
      "▁mũũru.": 7873,
      "▁ndigiri,": 7874,
      "▁gwĩtigĩra,": 7875,
      "njehere": 7876,
      "thikĩrĩria.": 7877,
      "▁njũke": 7878,
      "hinyanĩrĩria": 7879,
      "kooraga": 7880,
      "▁Oyai": 7881,
      "▁Aritasha": 7882,
      "▁Goshe": 7883,
      "▁kanini,": 7884,
      "▁kĩũmbe,": 7885,
      "▁kũraiha,": 7886,
      "-Bo": 7887,
      "▁Nĩndĩra": 7888,
      "▁kanyu,": 7889,
      "▁ũmotho,": 7890,
      "haandĩtwo": 7891,
      ":MAR": 7892,
      "▁nĩrũka": 7893,
      "▁rĩetagwo": 7894,
      "▁kĩĩruru-inĩ": 7895,
      "▁ũgwati-inĩ": 7896,
      "▁akiumĩrĩra": 7897,
      "▁Shemaia,": 7898,
      "heenereria": 7899,
      "▁mũhihano,": 7900,
      "▁abatari": 7901,
      "Jeari": 7902,
      "▁rũheni": 7903,
      "▁kwĩrira": 7904,
      "▁arogoocwo,": 7905,
      "tambuura": 7906,
      "▁Akaanani,": 7907,
      "▁Kiriathu-Jeari": 7908,
      "▁Mũũmbi": 7909,
      "▁Kĩhibirania": 7910,
      "▁Hema-ĩrĩa": 7911,
      "▁manema": 7912,
      "▁Zerubabeli": 7913,
      "▁Hadade": 7914,
      "▁gũthũngũthio": 7915,
      "▁Aperizi,": 7916,
      "▁Riũa": 7917,
      "bini": 7918,
      "beli,": 7919,
      "cini": 7920,
      "enyenye": 7921,
      "fa,": 7922,
      "ite": 7923,
      "onire": 7924,
      "ĩtigĩra": 7925,
      "▁Y": 7926,
      "▁ngeeka": 7927,
      "▁ahinyĩrĩ": 7928,
      "▁arũgamĩrĩri": 7929,
      "▁ũ,": 7930,
      "▁ũiguaga": 7931,
      "▁ũtige": 7932,
      "▁ũtuĩtwo": 7933,
      "▁ũgitĩri": 7934,
      "▁many": 7935,
      "▁magĩrĩirwo": 7936,
      "ndee": 7937,
      "gĩ,": 7938,
      "▁nĩha": 7939,
      "▁mũtheru,": 7940,
      "▁mũgooce": 7941,
      "kagĩrĩra": 7942,
      "kagio": 7943,
      "kanio": 7944,
      "▁itia": 7945,
      "▁irutwo": 7946,
      "▁itĩĩna": 7947,
      "▁ihumbu": 7948,
      "ta.\n": 7949,
      "mara": 7950,
      "mage": 7951,
      "rũũraga": 7952,
      "kee": 7953,
      "kenio": 7954,
      "thaka,": 7955,
      "ia,\n": 7956,
      "▁okĩrĩre": 7957,
      "theke": 7958,
      "theere": 7959,
      "▁Miria": 7960,
      "▁kũmo": 7961,
      "▁kũgaya": 7962,
      "rothu,": 7963,
      "tinda": 7964,
      "▁ciamũ": 7965,
      "ru;\n": 7966,
      "rubarĩ": 7967,
      "ku\n": 7968,
      "▁kĩrigiica": 7969,
      "▁Ali": 7970,
      "▁Aana": 7971,
      "▁Asia": 7972,
      "tu,": 7973,
      "tuma": 7974,
      "ko-inĩ": 7975,
      "komaga": 7976,
      "▁rĩro": 7977,
      "▁ĩthiĩ": 7978,
      "thĩa": 7979,
      "▁gũcina": 7980,
      "▁gũtĩĩa": 7981,
      "▁akĩme": 7982,
      "▁akĩndwara": 7983,
      "nyũra": 7984,
      "kũũria": 7985,
      "▁hake": 7986,
      "▁Nadabu": 7987,
      "▁ũcio;": 7988,
      "li,\n": 7989,
      "▁Ikũmi": 7990,
      "▁Nĩngo": 7991,
      "▁Nĩtwĩ": 7992,
      "▁ũndũ-inĩ": 7993,
      "▁mĩthe": 7994,
      "▁mĩgĩĩ": 7995,
      "nogia": 7996,
      "njete": 7997,
      "▁rĩacio": 7998,
      "▁Mũro": 7999,
      "▁Mũhu": 8000,
      "▁Mũgaa": 8001,
      "▁Mũhĩrĩga": 8002,
      "ngatĩre": 8003,
      "mumu,": 8004,
      "▁Kili": 8005,
      "▁agĩtharĩkĩra": 8006,
      "▁agĩkuua": 8007,
      "gida": 8008,
      "▁Twĩ": 8009,
      "bu-Ba": 8010,
      "▁wendaga": 8011,
      "ĩraga": 8012,
      "▁tũkaa": 8013,
      "▁makĩe": 8014,
      "▁makĩrũa": 8015,
      "▁makĩenda": 8016,
      "▁makĩrega": 8017,
      "▁makĩiyũrwo": 8018,
      "▁maaheirwo": 8019,
      "▁Mara": 8020,
      "▁Maarĩ": 8021,
      "▁aake": 8022,
      "▁nĩariũ": 8023,
      "nĩka": 8024,
      "nĩrwo": 8025,
      "gwatio": 8026,
      "twari": 8027,
      "gĩrĩria,": 8028,
      "sai,": 8029,
      "gũrũki": 8030,
      "▁bũrũri-inĩ,": 8031,
      "rutana": 8032,
      "rutagĩrwo": 8033,
      "▁magĩkorwo": 8034,
      "▁magĩkena": 8035,
      "▁magĩtharĩkĩra": 8036,
      "▁mũrũngĩrĩru": 8037,
      "hũthũ": 8038,
      "▁kwarama": 8039,
      "▁Waga": 8040,
      "▁ndũnyũ": 8041,
      "▁wonire": 8042,
      "▁woigire": 8043,
      "iguĩrĩire": 8044,
      "▁nyũmba.": 8045,
      "▁ũũ?": 8046,
      "▁ũũmĩrĩru": 8047,
      "▁79": 8048,
      "thundũ": 8049,
      "thu,\n": 8050,
      "mĩrĩra,": 8051,
      "▁88": 8052,
      "▁107": 8053,
      "▁Rĩa": 8054,
      "gwĩkĩra": 8055,
      "▁aarĩkanĩire": 8056,
      "▁128": 8057,
      "▁angĩ.\n": 8058,
      "▁angĩaga": 8059,
      "▁angĩona": 8060,
      "tũma\n": 8061,
      "▁Daudi,\n": 8062,
      "raganu": 8063,
      "▁mwĩtĩĩ": 8064,
      "▁mwĩkage": 8065,
      "▁mwĩhokeku,": 8066,
      "▁ngoroba": 8067,
      "▁irĩ\n": 8068,
      "▁ngĩe": 8069,
      "▁ngĩo": 8070,
      "▁gwĩtwo": 8071,
      "▁kũrĩa.": 8072,
      "▁Kanua": 8073,
      "▁Ndo": 8074,
      "▁Ndingĩ": 8075,
      "▁ita.\n": 8076,
      "▁Kũringa": 8077,
      "▁yothe;\n": 8078,
      "▁Jai": 8079,
      "▁Jaha": 8080,
      "▁guoko\n": 8081,
      "▁naguo.\n": 8082,
      "kinyĩrĩ": 8083,
      "▁matano": 8084,
      "▁maku\n": 8085,
      "▁kwĩya": 8086,
      "▁(K": 8087,
      "ndio": 8088,
      "▁ũthamaki.\n": 8089,
      "▁nĩngamũhe": 8090,
      "▁akĩmwĩra\n": 8091,
      "▁moonaga": 8092,
      "▁kiumĩte": 8093,
      "▁kĩĩga": 8094,
      "▁makwa\n": 8095,
      "▁ĩmwe\n": 8096,
      "▁meeohete": 8097,
      "▁mbaara-inĩ,": 8098,
      "▁makĩmũtwara": 8099,
      "▁Ĩta": 8100,
      "▁nĩendete": 8101,
      "▁ũũru\n": 8102,
      "ceerera": 8103,
      "▁igongona.": 8104,
      "cũhia": 8105,
      "rathimaga": 8106,
      "▁Gĩtũmi": 8107,
      "▁Meshe": 8108,
      "▁Mefi": 8109,
      "▁makoima": 8110,
      "▁athĩnjĩri-Ngai\n": 8111,
      "▁athĩnjĩri-Ngai.": 8112,
      "nie,": 8113,
      "heririe": 8114,
      "▁rĩmwe.": 8115,
      "▁nĩagatũũra": 8116,
      "ũkĩrĩre,": 8117,
      "▁thaahu;": 8118,
      "▁kĩhooto;\n": 8119,
      "▁Mĩtĩ": 8120,
      "▁Mĩthenya": 8121,
      "▁akĩanĩrĩra,": 8122,
      "▁Mwene-Hinya-Wothe\n": 8123,
      "niina.": 8124,
      ":32": 8125,
      ":36": 8126,
      "ũrĩre": 8127,
      "ũrĩtwo": 8128,
      "▁mahiga,\n": 8129,
      "▁agĩĩciiria": 8130,
      "cuuka": 8131,
      "▁Sidoni": 8132,
      "▁Ahitu": 8133,
      "▁ũgathiĩ": 8134,
      "▁ũthingu,": 8135,
      "▁mũndũ-wa-nja,": 8136,
      "▁mũciĩ.\n": 8137,
      "imu.": 8138,
      "▁airĩtu.": 8139,
      "▁ũthiũ-inĩ": 8140,
      "▁akĩmũcookeria,": 8141,
      "conorithia": 8142,
      "tĩkia.": 8143,
      "▁Rũciaro": 8144,
      "▁atongo": 8145,
      ":43": 8146,
      "▁magongona,": 8147,
      "▁ratiri": 8148,
      "mbũrũkĩtie": 8149,
      "▁Rabii": 8150,
      "mbũiya": 8151,
      "▁gĩkeno,": 8152,
      "▁agĩtũmana": 8153,
      "▁ihiga.": 8154,
      "▁akaamũ": 8155,
      "▁Arau": 8156,
      "▁Arangĩri": 8157,
      "▁manene,": 8158,
      "thĩte.": 8159,
      "▁ngaari-inĩ": 8160,
      "▁Bethi-Ho": 8161,
      "▁Geithia": 8162,
      "▁gĩkeno.\n": 8163,
      "▁kambĩ.": 8164,
      "▁arũme,": 8165,
      "▁riũa,": 8166,
      "▁ũrorete": 8167,
      "▁gwaku.": 8168,
      "▁rwitũ": 8169,
      "▁Mwĩmenyererei": 8170,
      "▁Ũguo\n": 8171,
      "▁matekũ": 8172,
      "kũũrire": 8173,
      "▁ngaatho,\n": 8174,
      "▁rũhuho.\n": 8175,
      "▁therie,": 8176,
      "thire.": 8177,
      "▁gĩtangĩ": 8178,
      "▁rũu.": 8179,
      "hĩtũka": 8180,
      "▁Kaanani.\n": 8181,
      "▁nĩrĩka": 8182,
      "tĩkĩrio": 8183,
      "▁aikarĩire": 8184,
      "▁mũhuhu": 8185,
      "tambũrũkirie": 8186,
      "▁tũtika": 8187,
      "cinĩtwo": 8188,
      "▁kwagĩrĩire,": 8189,
      "muonia": 8190,
      "▁wamũrutire": 8191,
      "▁rũũru-inĩ": 8192,
      "▁ũiguano,": 8193,
      "▁njũa": 8194,
      "▁kamwe,": 8195,
      "▁ndigwa,": 8196,
      "birania,": 8197,
      "▁gĩtĩĩo.\n": 8198,
      "▁mahũngũ": 8199,
      "▁ekĩte.": 8200,
      "▁ũmaraya,": 8201,
      "▁ethera": 8202,
      "inamĩrĩre": 8203,
      "▁Hebiro": 8204,
      "▁ithirĩro": 8205,
      "conorithio.\n": 8206,
      "▁nĩgĩga": 8207,
      "▁mathĩĩna-inĩ": 8208,
      "▁rĩera-inĩ,": 8209,
      "▁gĩkũnj": 8210,
      "▁Dameski,": 8211,
      "▁Ashike": 8212,
      "▁Ũkai,": 8213,
      "▁ũũkĩ,": 8214,
      "▁ethanĩire": 8215,
      "▁Ibuku-inĩ": 8216,
      "▁ngurunga-inĩ": 8217,
      "▁Mizipa,": 8218,
      "▁Sinai": 8219,
      "guucĩrĩ": 8220,
      "▁maiyũrĩte": 8221,
      "▁mĩhari": 8222,
      "▁Jezireeli,": 8223,
      "▁ikaragai": 8224,
      "▁Libina": 8225,
      "▁Shafani": 8226,
      "▁agĩtembũranga": 8227,
      "honoketie": 8228,
      "▁Thikĩrĩriai": 8229,
      "▁ndamathia": 8230,
      "▁ndutura": 8231,
      "▁Hema-inĩ-ya-Gũtũnganwo": 8232,
      "▁Shalumu": 8233,
      "▁Sisera": 8234,
      "▁twamo.\n": 8235,
      "▁Finehasi": 8236,
      "▁Perezu": 8237,
      "▁Mbũtũ": 8238,
      "▁Zefania": 8239,
      "▁Ahithofeli": 8240,
      "▁Fesito": 8241,
      ":MARŨA": 8242,
      "),\n": 8243,
      "-1": 8244,
      "25)": 8245,
      "ER": 8246,
      "ane": 8247,
      "ali,": 8248,
      "anĩri": 8249,
      "dina": 8250,
      "gwĩrĩire": 8251,
      "pi": 8252,
      "peri": 8253,
      "ĩko": 8254,
      "ũrwo": 8255,
      "▁ge": 8256,
      "▁huho": 8257,
      "▁merekeire": 8258,
      "▁amu": 8259,
      "▁aiyũrĩtwo": 8260,
      "thĩrĩirie": 8261,
      "▁ũtũũ": 8262,
      "▁ũrute": 8263,
      "▁ũtuĩkĩte": 8264,
      "▁ũkuona": 8265,
      "▁ũkuĩte": 8266,
      "▁ũtharia": 8267,
      "▁ũikarĩire": 8268,
      "▁mawa": 8269,
      "▁matoo": 8270,
      "▁mandĩkĩtwo": 8271,
      "▁makwĩ": 8272,
      "▁macookio": 8273,
      "gara": 8274,
      "gaĩirwo": 8275,
      "gĩtuĩka": 8276,
      "▁watũũraga": 8277,
      "▁wakinya": 8278,
      "▁nĩkuona": 8279,
      "▁mũmwe": 8280,
      "▁mũhooya": 8281,
      "▁mũkuu": 8282,
      "▁mũthĩnjĩri-ngai": 8283,
      "▁mũthĩgi": 8284,
      "rehire": 8285,
      "▁itũ": 8286,
      "▁ica": 8287,
      "▁ikinya": 8288,
      "▁ihĩndĩ": 8289,
      "ta,\n": 8290,
      "tahĩ": 8291,
      "rũũ": 8292,
      "rũre": 8293,
      "rũmia": 8294,
      "rũraga": 8295,
      "nau": 8296,
      "tũhonokia": 8297,
      "gũcookeria": 8298,
      "thanĩte": 8299,
      "theragia": 8300,
      "hatĩrĩria": 8301,
      "▁Miki": 8302,
      "▁kũũrũ": 8303,
      "▁kũnjĩ": 8304,
      "▁kũhaana": 8305,
      "▁kũreka": 8306,
      "▁kũgũa": 8307,
      "▁kũingĩha": 8308,
      "rorire": 8309,
      "nege": 8310,
      "rumbĩ": 8311,
      "ruĩte": 8312,
      "▁Jehi": 8313,
      "▁Jefu": 8314,
      "▁ndiĩ": 8315,
      "▁kĩhe": 8316,
      "▁kĩhinga": 8317,
      "▁Amera": 8318,
      "▁Adu": 8319,
      "▁Amoni,": 8320,
      "▁Akĩoya": 8321,
      "▁Anĩrĩrai": 8322,
      "korete": 8323,
      "mũkĩre": 8324,
      "mũkĩrire": 8325,
      "herai": 8326,
      "thĩnjwo": 8327,
      "▁gũku": 8328,
      "▁gũcookeria": 8329,
      "▁gũtingĩ": 8330,
      "▁gũũkĩra": 8331,
      "▁gũteng": 8332,
      "▁gũtuĩria": 8333,
      "▁akĩo": 8334,
      "▁akĩmo": 8335,
      "▁akĩaragia": 8336,
      "▁akĩmee": 8337,
      "▁akĩinamĩrĩra": 8338,
      "▁Jehova:\n": 8339,
      "▁Nabali": 8340,
      "gete": 8341,
      "lide": 8342,
      "▁Nĩnjĩ": 8343,
      "▁Nĩnyonete": 8344,
      "ũragĩra": 8345,
      "▁mĩgogo": 8346,
      "hithaga": 8347,
      "▁Mũci": 8348,
      "tĩkagia": 8349,
      "hĩre": 8350,
      "hĩngĩ": 8351,
      "▁mũndũ-rĩ,": 8352,
      "▁3:1": 8353,
      "muoho": 8354,
      "gitagĩra": 8355,
      "▁Thiga": 8356,
      "▁Tigana": 8357,
      "eli,\n": 8358,
      "ndĩkire": 8359,
      "mba,": 8360,
      "▁wekire": 8361,
      "▁rũng": 8362,
      "▁ega": 8363,
      "▁etia": 8364,
      "▁emie": 8365,
      "▁makĩhe": 8366,
      "▁makĩheo": 8367,
      "▁makĩgooca": 8368,
      "▁kũrĩĩo": 8369,
      "▁aakinya": 8370,
      "▁aatũmĩte": 8371,
      "▁aamee": 8372,
      "▁nĩaheete": 8373,
      "▁nĩaraka": 8374,
      "▁nĩarooka": 8375,
      "▁kĩande": 8376,
      "rio,\n": 8377,
      "▁Ũka,": 8378,
      "▁Ũtheri": 8379,
      "baku": 8380,
      "batarĩ": 8381,
      "▁magĩtiga": 8382,
      "gia\n": 8383,
      "dabu,": 8384,
      "hũga": 8385,
      "▁kwagĩire": 8386,
      "▁niĩ;\n": 8387,
      "▁ndũke": 8388,
      "thanie": 8389,
      "mi,": 8390,
      "▁Eni": 8391,
      "hooi": 8392,
      "hootwo": 8393,
      "caũ": 8394,
      "▁marĩĩaga": 8395,
      "thũkĩtie": 8396,
      "thũkie": 8397,
      "thũũre": 8398,
      "▁ũngĩa": 8399,
      "ndehere": 8400,
      "thuthĩ": 8401,
      "▁Dani,": 8402,
      "▁81": 8403,
      "▁83": 8404,
      "▁84": 8405,
      "▁85": 8406,
      "▁Joki": 8407,
      "tuĩkanĩria": 8408,
      "rĩrĩĩaga": 8409,
      "▁104": 8410,
      "▁123": 8411,
      "▁127": 8412,
      "▁12,000": 8413,
      "▁112": 8414,
      "▁nĩwe.": 8415,
      "▁ciothe;\n": 8416,
      "▁muoni-maũndũ": 8417,
      "▁137": 8418,
      "▁Hamu": 8419,
      "▁nyenda": 8420,
      "lai": 8421,
      "toorania": 8422,
      "▁mũthenya.\n": 8423,
      "raga\n": 8424,
      "hinga,": 8425,
      "▁ngĩtũma": 8426,
      "▁kũrĩa,": 8427,
      "▁njarie": 8428,
      "karũgama": 8429,
      "kanangwo": 8430,
      "▁macio,\n": 8431,
      "▁Kaperi": 8432,
      "▁nyama,": 8433,
      "▁ekuuga\n": 8434,
      "▁ekuuga,": 8435,
      "▁eerire": 8436,
      "▁make\n": 8437,
      "bedi,": 8438,
      "▁Kũhonia": 8439,
      "▁Kũrigania": 8440,
      "mbori": 8441,
      "▁yakuti": 8442,
      "heenanagia": 8443,
      "mũreke": 8444,
      "mũrehithĩ": 8445,
      "tua\n": 8446,
      "▁thiiya": 8447,
      "haaro-inĩ": 8448,
      "▁makuuĩte": 8449,
      "▁ngaamũ": 8450,
      "▁maitho\n": 8451,
      "▁kwĩhĩta": 8452,
      "▁(0.": 8453,
      "ĩagĩra": 8454,
      "ngithia": 8455,
      "▁ndũrĩrĩ;\n": 8456,
      "▁ndũrĩrĩ-inĩ,": 8457,
      "▁matigaa": 8458,
      "▁mooĩ": 8459,
      "▁ingĩ.": 8460,
      "nĩrĩirie": 8461,
      "▁ũtaka": 8462,
      "reheire": 8463,
      "▁ndaarutire": 8464,
      "▁maraa": 8465,
      "▁mbaara\n": 8466,
      "▁ithuĩ-rĩ,": 8467,
      "▁Elija,": 8468,
      "onera": 8469,
      "oneki": 8470,
      "▁maguta.\n": 8471,
      "▁mũũĩ": 8472,
      "▁oimire": 8473,
      "▁ũũru;\n": 8474,
      "▁Gathi": 8475,
      "▁Gaza": 8476,
      "▁Reu": 8477,
      "▁igongona,": 8478,
      "▁kĩgongona-inĩ.": 8479,
      "cũthagĩrĩria": 8480,
      "▁Gĩko": 8481,
      "▁ũkoo": 8482,
      "▁Tũti": 8483,
      "kua.\n": 8484,
      "niei": 8485,
      "▁njora\n": 8486,
      "▁ũkama": 8487,
      "▁maitũ,\n": 8488,
      "▁Aamoni,": 8489,
      "▁gwake.\n": 8490,
      "nio.\n": 8491,
      "▁ciakwa\n": 8492,
      "▁uugĩte": 8493,
      "nyiitaga": 8494,
      "▁Zali": 8495,
      "▁akĩandĩka": 8496,
      ":35": 8497,
      "▁makĩandĩkwo": 8498,
      "▁aroo": 8499,
      "▁arotũũra": 8500,
      "tharĩkagĩra": 8501,
      "▁Jusufu\n": 8502,
      "▁ũmarama": 8503,
      "▁nĩkĩ,": 8504,
      "▁nĩmakama": 8505,
      "▁amũhe": 8506,
      "ikũrũkire": 8507,
      "heage": 8508,
      "▁Maathani": 8509,
      "▁ũgacooka": 8510,
      "rikanwo": 8511,
      "▁ikĩmũ": 8512,
      "▁maingĩ.": 8513,
      "▁ũragũri": 8514,
      "▁rĩĩrĩ\n": 8515,
      "▁nakĩo.": 8516,
      "▁nĩmegũ": 8517,
      "▁ici:\n": 8518,
      "▁icigĩrĩra": 8519,
      "▁njino.": 8520,
      "▁njogothe": 8521,
      "▁gĩakwa.": 8522,
      "▁irĩma-inĩ,": 8523,
      "▁kĩerũ": 8524,
      "▁Arahũka,": 8525,
      "▁rũciinĩ.": 8526,
      "▁kĩarĩtio": 8527,
      "▁waganu.\n": 8528,
      "▁mũthiro,": 8529,
      "▁mũthigari": 8530,
      "▁wayo,\n": 8531,
      "▁Gerisho": 8532,
      "▁Kĩama": 8533,
      "▁ũitĩrĩ": 8534,
      "▁gĩthaka.\n": 8535,
      "▁Thabatũ\n": 8536,
      "▁Danieli,": 8537,
      "hingĩria": 8538,
      "hingĩtie": 8539,
      "▁mahĩtia.": 8540,
      "▁ũrĩo,\n": 8541,
      "▁Asadu": 8542,
      "▁ndũrũme,": 8543,
      "▁ũmenyo.\n": 8544,
      "▁kũimbia,": 8545,
      "▁baba.": 8546,
      "▁ihingo,": 8547,
      "▁mũingĩ,": 8548,
      "▁maikare": 8549,
      "▁thĩĩna.\n": 8550,
      "▁agĩtuĩka\n": 8551,
      "▁kũraya,": 8552,
      "thĩkĩra.": 8553,
      "kũũrana": 8554,
      "▁mũũgĩ,": 8555,
      "nyarara": 8556,
      "▁thiĩi": 8557,
      "▁gĩthiũrũ": 8558,
      "▁tũgĩkinya": 8559,
      "▁akuũ.": 8560,
      "hũthĩre": 8561,
      "▁Nebuzara": 8562,
      "hithĩtwo": 8563,
      "▁Aca!": 8564,
      "▁mĩraaya": 8565,
      "imagarire": 8566,
      "▁njũgũ": 8567,
      "inainaga": 8568,
      "▁nyumĩrĩra": 8569,
      "nyũrũrania": 8570,
      "▁matatũ,": 8571,
      "▁eekire,": 8572,
      "▁wendani,": 8573,
      "▁Eleazaru,": 8574,
      "▁ciacio,": 8575,
      "mbararĩtie": 8576,
      "gwatanĩra": 8577,
      "▁kũgegania": 8578,
      "▁rĩgĩtaũrwo": 8579,
      "▁Igũrũ\n": 8580,
      "▁makĩũrĩra": 8581,
      "▁Eliashi": 8582,
      "rũgamĩrĩre": 8583,
      "▁atũmwo,": 8584,
      "▁ndigacooka": 8585,
      "▁Tema": 8586,
      "cookanĩrĩirie": 8587,
      "▁Kĩhingo-inĩ": 8588,
      "▁ũmotho.": 8589,
      "▁mĩthiro": 8590,
      "▁inini": 8591,
      "▁wakĩo.": 8592,
      "▁mũgeeto,": 8593,
      "▁mũkoiga": 8594,
      "▁Ashera": 8595,
      "▁mwanya,": 8596,
      "gwatĩire": 8597,
      "▁Simeoni,": 8598,
      "gaikare": 8599,
      "▁Farati,": 8600,
      "▁gwekĩ": 8601,
      "▁Judea,": 8602,
      "rorerwa": 8603,
      "▁gwĩtiiria": 8604,
      "ceera": 8605,
      "▁Nginya": 8606,
      "▁tũtano": 8607,
      "▁Agerishoni": 8608,
      "▁makĩgega": 8609,
      "hingio.": 8610,
      "▁kwarama,": 8611,
      "▁kĩrũmu": 8612,
      "▁Athalia": 8613,
      "▁Ambata,": 8614,
      "▁Amidiani": 8615,
      "▁Nineve": 8616,
      "▁ũtheri,": 8617,
      "▁Zikila": 8618,
      "▁ciyũrĩte": 8619,
      "▁gũtwekio": 8620,
      "▁Athesaloni": 8621,
      "ndigiicĩ": 8622,
      "▁Ameni!": 8623,
      "▁atiinde": 8624,
      "▁kwĩyamũrĩra": 8625,
      "▁Hema-ya-\n": 8626,
      "▁Ithũnũ": 8627,
      "▁Bathishe": 8628,
      "▁mĩgĩĩko": 8629,
      "▁Mefibo": 8630,
      "▁Arauna": 8631,
      "▁Kaperinau": 8632,
      ",2": 8633,
      "AM": 8634,
      "amba": 8635,
      "cin": 8636,
      "dira": 8637,
      "ele": 8638,
      "iy": 8639,
      "iha": 8640,
      "kwĩrĩ": 8641,
      "n-\n": 8642,
      "tini": 8643,
      "ũke": 8644,
      "ũguo": 8645,
      "▁V": 8646,
      "▁hu": 8647,
      "rĩ\n": 8648,
      "rĩkia": 8649,
      "rĩire,": 8650,
      "rĩhĩria": 8651,
      "▁agee": 8652,
      "▁aigue": 8653,
      "▁naho": 8654,
      "▁ũtha": 8655,
      "▁ũho": 8656,
      "▁ũgai": 8657,
      "▁ũkire": 8658,
      "▁ũtoonye": 8659,
      "▁ũtũũrĩte": 8660,
      "▁ũguũ": 8661,
      "▁ũmenyagĩrĩre": 8662,
      "▁ũbiri": 8663,
      "▁mathĩĩ": 8664,
      "▁matũmaga": 8665,
      "▁matwarwo": 8666,
      "rara": 8667,
      "rame": 8668,
      "ragĩte": 8669,
      "ndirikana": 8670,
      "▁waho": 8671,
      "▁wathaga": 8672,
      "▁waatha": 8673,
      "▁nĩnĩ": 8674,
      "▁nĩtwe": 8675,
      "cigo": 8676,
      "rĩa.": 8677,
      "▁mũbata": 8678,
      "kaĩire": 8679,
      "▁Nyu": 8680,
      "▁igaakorwo": 8681,
      "kĩri": 8682,
      "kĩona": 8683,
      "ta.": 8684,
      "tage": 8685,
      "tũka": 8686,
      "gũrĩre": 8687,
      "▁cio,": 8688,
      "▁ona": 8689,
      "▁onaga": 8690,
      "▁oonaga": 8691,
      "▁onjorithia": 8692,
      "hatĩrĩ": 8693,
      "haru,": 8694,
      "hagio": 8695,
      "▁Meli": 8696,
      "▁Mbe": 8697,
      "▁kũnde": 8698,
      "▁kũrora": 8699,
      "▁kũna.\n": 8700,
      "▁kũnjĩka": 8701,
      "▁kũhonokania": 8702,
      "tiĩ": 8703,
      "niini": 8704,
      "neke": 8705,
      "▁yakĩo": 8706,
      "thirĩte": 8707,
      "▁nduĩkĩte": 8708,
      "▁kĩrimũ": 8709,
      "▁kĩbarĩ": 8710,
      "▁Ais": 8711,
      "tunye": 8712,
      "▁ĩte": 8713,
      "▁2:4": 8714,
      "mbĩra": 8715,
      "heragia": 8716,
      "thĩra": 8717,
      "▁akĩenda": 8718,
      "▁akĩneana": 8719,
      "▁akĩhaica": 8720,
      "▁akĩhingũra": 8721,
      "nyoni": 8722,
      "▁haana": 8723,
      "▁ha?\n": 8724,
      "▁gĩtingĩ": 8725,
      "lima": 8726,
      "ũrai": 8727,
      "▁kara": 8728,
      "▁rĩakĩo": 8729,
      "▁rĩao.\n": 8730,
      "▁Mũkaa": 8731,
      "▁Mũshu": 8732,
      "▁Mũtwe": 8733,
      "▁Mũfarisai": 8734,
      "tĩkio": 8735,
      "▁tanji": 8736,
      "muone": 8737,
      "▁KŨRĨ": 8738,
      "humu": 8739,
      "▁njũkĩrĩre": 8740,
      "▁njarĩtie": 8741,
      "thamakagĩra": 8742,
      "▁agĩteng": 8743,
      "girĩka": 8744,
      "bu.": 8745,
      "▁wekĩkire": 8746,
      "▁rũte": 8747,
      "▁rũkũ": 8748,
      "nda,": 8749,
      "▁Hũ": 8750,
      "▁tũhaana": 8751,
      "▁tũhote": 8752,
      "▁tũkonyo": 8753,
      "▁makĩina": 8754,
      "▁makĩmenya": 8755,
      "▁makĩũragwo": 8756,
      "tũũragwo": 8757,
      "▁ngwe": 8758,
      "▁aahota": 8759,
      "▁aamenyire": 8760,
      "▁nĩakara": 8761,
      "▁nĩaheire": 8762,
      "▁Gera": 8763,
      "gaatha": 8764,
      "gaatho": 8765,
      "▁mekagwo": 8766,
      "▁mwaraganu": 8767,
      "▁tha;\n": 8768,
      "▁Bi": 8769,
      "▁ũhoro.": 8770,
      "▁magĩkuua": 8771,
      "▁magĩkaĩra": 8772,
      "▁magĩtaha": 8773,
      "▁iria.\n": 8774,
      "▁iria,\n": 8775,
      "hũgĩ": 8776,
      "▁gakĩ": 8777,
      "arani": 8778,
      "▁nake,\n": 8779,
      "▁ndũgaa": 8780,
      "▁wonete": 8781,
      "▁Eshi": 8782,
      "▁nĩmathiire": 8783,
      "▁maũndũ,": 8784,
      "▁maũndũ.\n": 8785,
      "▁marĩĩ": 8786,
      "▁mohetwo": 8787,
      "iguithia": 8788,
      "▁hamwe,\n": 8789,
      "▁ngoretwo": 8790,
      "▁ndĩme": 8791,
      "▁maarĩkirie": 8792,
      "thuthuu": 8793,
      "mĩrĩrwo": 8794,
      "▁82": 8795,
      "▁86": 8796,
      "▁Joza": 8797,
      "▁inyuĩ?": 8798,
      "rĩrĩirie": 8799,
      "▁102": 8800,
      "▁103": 8801,
      "▁105": 8802,
      "▁109": 8803,
      "▁90": 8804,
      "▁94": 8805,
      "▁95": 8806,
      "▁115": 8807,
      "▁rĩu,\n": 8808,
      "ngatagĩre": 8809,
      "▁muohe": 8810,
      "▁135": 8811,
      "▁138": 8812,
      "▁139": 8813,
      "▁hinya-rĩ,": 8814,
      "▁Hagai": 8815,
      "▁Hamo": 8816,
      "▁Haaro": 8817,
      "▁Habaku": 8818,
      "▁itũũraga": 8819,
      "▁itũũra-inĩ,": 8820,
      "▁nyene": 8821,
      "▁ũyũ:\n": 8822,
      "tooririe": 8823,
      "▁wĩkage": 8824,
      "▁muoyo?": 8825,
      "▁muoyo-inĩ": 8826,
      "▁mũthenya.": 8827,
      "menyithie": 8828,
      "raga.\n": 8829,
      "mwĩraga": 8830,
      "onagĩra": 8831,
      "nge,": 8832,
      "▁ndigũ": 8833,
      "▁gwĩthamba": 8834,
      "nyiihĩtie": 8835,
      "▁yogothe": 8836,
      "▁witũ-rĩ,": 8837,
      "▁ekuuga:\n": 8838,
      "▁twagĩrĩirwo": 8839,
      "▁eekĩte.": 8840,
      "beri": 8841,
      "▁Kũngĩkorwo": 8842,
      "▁Gũthiĩ": 8843,
      "▁Gũtuĩrwo": 8844,
      "▁watho-rĩ,": 8845,
      "hooya.": 8846,
      "hooyagĩra": 8847,
      "kararia": 8848,
      "▁hekarũ.\n": 8849,
      "▁thikĩrĩria,": 8850,
      "▁kĩndũ.": 8851,
      "▁yakwa-rĩ,": 8852,
      "kinyie": 8853,
      "▁mataama": 8854,
      "▁akuo,": 8855,
      "▁makaarĩ": 8856,
      "▁mehia;": 8857,
      "▁ciana\n": 8858,
      "boamu,": 8859,
      "▁mwaki\n": 8860,
      "hotaga": 8861,
      "▁Niĩ-rĩ,": 8862,
      "nĩrĩra\n": 8863,
      "▁kũmũũria": 8864,
      "▁mbaara-inĩ.": 8865,
      "▁mũgandi": 8866,
      "▁Saũlũ.": 8867,
      "gĩrĩire,": 8868,
      "▁mũũmbi": 8869,
      "▁tũrĩma-inĩ": 8870,
      "▁cianyu.\n": 8871,
      "▁hote": 8872,
      "▁nyamũ,": 8873,
      "▁agaci": 8874,
      "▁agatũma": 8875,
      "▁mũriũ\n": 8876,
      "▁mũriũ,": 8877,
      "▁nawe\n": 8878,
      "▁Rez": 8879,
[...]
